#include "magic_wand_model_data.h"

// We need to keep the data array aligned on some architectures.
#ifdef __has_attribute
#define HAVE_ATTRIBUTE(x) __has_attribute(x)
#else
#define HAVE_ATTRIBUTE(x) 0
#endif
#if HAVE_ATTRIBUTE(aligned) || (defined(__GNUC__) && !defined(__clang__))
#define DATA_ALIGN_ATTRIBUTE __attribute__((aligned(4)))
#else
#define DATA_ALIGN_ATTRIBUTE
#endif

const unsigned char g_magic_wand_model_data[] DATA_ALIGN_ATTRIBUTE = {
0x1c, 0x00, 0x00, 0x00, 0x54, 0x46, 0x4c, 0x33, 0x14, 0x00, 0x20, 0x00,
  0x04, 0x00, 0x08, 0x00, 0x0c, 0x00, 0x10, 0x00, 0x14, 0x00, 0x00, 0x00,
  0x18, 0x00, 0x1c, 0x00, 0x14, 0x00, 0x00, 0x00, 0x03, 0x00, 0x00, 0x00,
  0x18, 0x00, 0x00, 0x00, 0x2c, 0x00, 0x00, 0x00, 0xd8, 0x00, 0x00, 0x00,
  0x2c, 0x00, 0x00, 0x00, 0x80, 0x00, 0x00, 0x00, 0x78, 0x00, 0x00, 0x00,
  0x05, 0x00, 0x00, 0x00, 0x28, 0x07, 0x00, 0x00, 0x44, 0x06, 0x00, 0x00,
  0xbc, 0x03, 0x00, 0x00, 0xf8, 0x02, 0x00, 0x00, 0xac, 0x01, 0x00, 0x00,
  0x01, 0x00, 0x00, 0x00, 0xd0, 0x00, 0x00, 0x00, 0x14, 0x00, 0x00, 0x00,
  0xdc, 0x32, 0x00, 0x00, 0xd8, 0x32, 0x00, 0x00, 0xd0, 0x31, 0x00, 0x00,
  0x1c, 0x31, 0x00, 0x00, 0x74, 0x30, 0x00, 0x00, 0xfc, 0x2f, 0x00, 0x00,
  0x90, 0x2f, 0x00, 0x00, 0x40, 0x13, 0x00, 0x00, 0xec, 0x11, 0x00, 0x00,
  0x10, 0x10, 0x00, 0x00, 0xb4, 0x07, 0x00, 0x00, 0xb0, 0x32, 0x00, 0x00,
  0xac, 0x32, 0x00, 0x00, 0xa8, 0x32, 0x00, 0x00, 0xa4, 0x32, 0x00, 0x00,
  0xa0, 0x32, 0x00, 0x00, 0x9c, 0x32, 0x00, 0x00, 0x98, 0x32, 0x00, 0x00,
  0x94, 0x32, 0x00, 0x00, 0x3c, 0x00, 0x00, 0x00, 0x00, 0x00, 0x00, 0x00,
  0x01, 0x00, 0x00, 0x00, 0x0c, 0x00, 0x00, 0x00, 0x08, 0x00, 0x0c, 0x00,
  0x04, 0x00, 0x08, 0x00, 0x08, 0x00, 0x00, 0x00, 0x08, 0x00, 0x00, 0x00,
  0x13, 0x00, 0x00, 0x00, 0x13, 0x00, 0x00, 0x00, 0x6d, 0x69, 0x6e, 0x5f,
  0x72, 0x75, 0x6e, 0x74, 0x69, 0x6d, 0x65, 0x5f, 0x76, 0x65, 0x72, 0x73,
  0x69, 0x6f, 0x6e, 0x00, 0xb6, 0xce, 0xff, 0xff, 0x04, 0x00, 0x00, 0x00,
  0x10, 0x00, 0x00, 0x00, 0x31, 0x2e, 0x35, 0x2e, 0x30, 0x00, 0x00, 0x00,
  0x00, 0x00, 0x00, 0x00, 0x00, 0x00, 0x00, 0x00, 0x0f, 0x00, 0x00, 0x00,
  0x4d, 0x4c, 0x49, 0x52, 0x20, 0x43, 0x6f, 0x6e, 0x76, 0x65, 0x72, 0x74,
  0x65, 0x64, 0x2e, 0x00, 0x00, 0x00, 0x0e, 0x00, 0x18, 0x00, 0x04, 0x00,
  0x08, 0x00, 0x0c, 0x00, 0x10, 0x00, 0x14, 0x00, 0x0e, 0x00, 0x00, 0x00,
  0x14, 0x00, 0x00, 0x00, 0x5c, 0x00, 0x00, 0x00, 0x60, 0x00, 0x00, 0x00,
  0x64, 0x00, 0x00, 0x00, 0x84, 0x00, 0x00, 0x00, 0x12, 0x00, 0x00, 0x00,
  0x9c, 0x31, 0x00, 0x00, 0x2c, 0x31, 0x00, 0x00, 0x88, 0x30, 0x00, 0x00,
  0xe0, 0x2f, 0x00, 0x00, 0x38, 0x2f, 0x00, 0x00, 0xd4, 0x2e, 0x00, 0x00,
  0x6c, 0x2e, 0x00, 0x00, 0x18, 0x12, 0x00, 0x00, 0xbc, 0x10, 0x00, 0x00,
  0xe0, 0x0e, 0x00, 0x00, 0x0c, 0x06, 0x00, 0x00, 0x28, 0x05, 0x00, 0x00,
  0xe8, 0x03, 0x00, 0x00, 0x3c, 0x03, 0x00, 0x00, 0x98, 0x02, 0x00, 0x00,
  0xd4, 0x01, 0x00, 0x00, 0x10, 0x01, 0x00, 0x00, 0x84, 0x00, 0x00, 0x00,
  0x01, 0x00, 0x00, 0x00, 0x00, 0x00, 0x00, 0x00, 0x01, 0x00, 0x00, 0x00,
  0x11, 0x00, 0x00, 0x00, 0x08, 0x00, 0x00, 0x00, 0x74, 0x05, 0x00, 0x00,
  0x94, 0x04, 0x00, 0x00, 0x78, 0x03, 0x00, 0x00, 0xbc, 0x02, 0x00, 0x00,
  0x30, 0x02, 0x00, 0x00, 0x50, 0x01, 0x00, 0x00, 0xa8, 0x00, 0x00, 0x00,
  0x10, 0x00, 0x00, 0x00, 0x04, 0x00, 0x00, 0x00, 0x6d, 0x61, 0x69, 0x6e,
  0x00, 0x00, 0x00, 0x00, 0x7a, 0xff, 0xff, 0xff, 0x00, 0x00, 0x00, 0x09,
  0x04, 0x00, 0x00, 0x00, 0x1c, 0x00, 0x00, 0x00, 0x10, 0x00, 0x00, 0x00,
  0x04, 0x00, 0x00, 0x00, 0xb2, 0xcf, 0xff, 0xff, 0x00, 0x00, 0x80, 0x3f,
  0x01, 0x00, 0x00, 0x00, 0x11, 0x00, 0x00, 0x00, 0x01, 0x00, 0x00, 0x00,
  0x10, 0x00, 0x00, 0x00, 0xa0, 0xfa, 0xff, 0xff, 0x19, 0x00, 0x00, 0x00,
  0x00, 0x00, 0x00, 0x19, 0x01, 0x00, 0x00, 0x00, 0x40, 0xcf, 0xff, 0xff,
  0x14, 0x00, 0x00, 0x00, 0x12, 0x00, 0x00, 0x00, 0x18, 0x00, 0x00, 0x00,
  0x30, 0x00, 0x00, 0x00, 0x20, 0x00, 0x00, 0x00, 0x02, 0x00, 0x00, 0x00,
  0x01, 0x00, 0x00, 0x00, 0x04, 0x00, 0x00, 0x00, 0x08, 0x00, 0x00, 0x00,
  0x49, 0x64, 0x65, 0x6e, 0x74, 0x69, 0x74, 0x79, 0x00, 0x00, 0x00, 0x00,
  0x02, 0x00, 0x00, 0x00, 0xff, 0xff, 0xff, 0xff, 0x04, 0x00, 0x00, 0x00,
  0x24, 0xd0, 0xff, 0xff, 0x00, 0x00, 0x0e, 0x00, 0x18, 0x00, 0x08, 0x00,
  0x0c, 0x00, 0x10, 0x00, 0x07, 0x00, 0x14, 0x00, 0x0e, 0x00, 0x00, 0x00,
  0x00, 0x00, 0x00, 0x08, 0x03, 0x00, 0x00, 0x00, 0x18, 0x00, 0x00, 0x00,
  0x0c, 0x00, 0x00, 0x00, 0x04, 0x00, 0x00, 0x00, 0x40, 0xcf, 0xff, 0xff,
  0x01, 0x00, 0x00, 0x00, 0x10, 0x00, 0x00, 0x00, 0x03, 0x00, 0x00, 0x00,
  0x0f, 0x00, 0x00, 0x00, 0x07, 0x00, 0x00, 0x00, 0x04, 0x00, 0x00, 0x00,
  0xc8, 0xcf, 0xff, 0xff, 0x14, 0x00, 0x00, 0x00, 0x11, 0x00, 0x00, 0x00,
  0x18, 0x00, 0x00, 0x00, 0x5c, 0x00, 0x00, 0x00, 0x4c, 0x00, 0x00, 0x00,
  0x02, 0x00, 0x00, 0x00, 0x01, 0x00, 0x00, 0x00, 0x04, 0x00, 0x00, 0x00,
  0x34, 0x00, 0x00, 0x00, 0x73, 0x65, 0x71, 0x75, 0x65, 0x6e, 0x74, 0x69,
  0x61, 0x6c, 0x2f, 0x64, 0x65, 0x6e, 0x73, 0x65, 0x5f, 0x31, 0x2f, 0x4d,
  0x61, 0x74, 0x4d, 0x75, 0x6c, 0x3b, 0x73, 0x65, 0x71, 0x75, 0x65, 0x6e,
  0x74, 0x69, 0x61, 0x6c, 0x2f, 0x64, 0x65, 0x6e, 0x73, 0x65, 0x5f, 0x31,
  0x2f, 0x42, 0x69, 0x61, 0x73, 0x41, 0x64, 0x64, 0x00, 0x00, 0x00, 0x00,
  0x02, 0x00, 0x00, 0x00, 0xff, 0xff, 0xff, 0xff, 0x04, 0x00, 0x00, 0x00,
  0xc8, 0xcf, 0xff, 0xff, 0xda, 0xfc, 0xff, 0xff, 0x00, 0x00, 0x00, 0x08,
  0x03, 0x00, 0x00, 0x00, 0x24, 0x00, 0x00, 0x00, 0x18, 0x00, 0x00, 0x00,
  0x0c, 0x00, 0x00, 0x00, 0x00, 0x00, 0x06, 0x00, 0x08, 0x00, 0x07, 0x00,
  0x06, 0x00, 0x00, 0x00, 0x00, 0x00, 0x00, 0x01, 0x01, 0x00, 0x00, 0x00,
  0x0f, 0x00, 0x00, 0x00, 0x03, 0x00, 0x00, 0x00, 0x0e, 0x00, 0x00, 0x00,
  0x06, 0x00, 0x00, 0x00, 0x03, 0x00, 0x00, 0x00, 0xe8, 0xfb, 0xff, 0xff,
  0x09, 0x00, 0x00, 0x00, 0x00, 0x00, 0x00, 0x09, 0x01, 0x00, 0x00, 0x00,
  0x88, 0xd0, 0xff, 0xff, 0x14, 0x00, 0x00, 0x00, 0x10, 0x00, 0x00, 0x00,
  0x18, 0x00, 0x00, 0x00, 0x6c, 0x00, 0x00, 0x00, 0x5c, 0x00, 0x00, 0x00,
  0x02, 0x00, 0x00, 0x00, 0x01, 0x00, 0x00, 0x00, 0x10, 0x00, 0x00, 0x00,
  0x46, 0x00, 0x00, 0x00, 0x73, 0x65, 0x71, 0x75, 0x65, 0x6e, 0x74, 0x69,
  0x61, 0x6c, 0x2f, 0x64, 0x65, 0x6e, 0x73, 0x65, 0x2f, 0x4d, 0x61, 0x74,
  0x4d, 0x75, 0x6c, 0x3b, 0x73, 0x65, 0x71, 0x75, 0x65, 0x6e, 0x74, 0x69,
  0x61, 0x6c, 0x2f, 0x64, 0x65, 0x6e, 0x73, 0x65, 0x2f, 0x52, 0x65, 0x6c,
  0x75, 0x3b, 0x73, 0x65, 0x71, 0x75, 0x65, 0x6e, 0x74, 0x69, 0x61, 0x6c,
  0x2f, 0x64, 0x65, 0x6e, 0x73, 0x65, 0x2f, 0x42, 0x69, 0x61, 0x73, 0x41,
  0x64, 0x64, 0x00, 0x00, 0x02, 0x00, 0x00, 0x00, 0xff, 0xff, 0xff, 0xff,
  0x10, 0x00, 0x00, 0x00, 0xa8, 0xd1, 0xff, 0xff, 0x00, 0x00, 0x0a, 0x00,
  0x10, 0x00, 0x04, 0x00, 0x08, 0x00, 0x0c, 0x00, 0x0a, 0x00, 0x00, 0x00,
  0x02, 0x00, 0x00, 0x00, 0x10, 0x00, 0x00, 0x00, 0x04, 0x00, 0x00, 0x00,
  0x01, 0x00, 0x00, 0x00, 0x0e, 0x00, 0x00, 0x00, 0x02, 0x00, 0x00, 0x00,
  0x0d, 0x00, 0x00, 0x00, 0x05, 0x00, 0x00, 0x00, 0xa8, 0xfc, 0xff, 0xff,
  0x16, 0x00, 0x00, 0x00, 0x00, 0x00, 0x00, 0x16, 0x01, 0x00, 0x00, 0x00,
  0x48, 0xd1, 0xff, 0xff, 0x14, 0x00, 0x00, 0x00, 0x0f, 0x00, 0x00, 0x00,
  0x18, 0x00, 0x00, 0x00, 0x40, 0x00, 0x00, 0x00, 0x30, 0x00, 0x00, 0x00,
  0x02, 0x00, 0x00, 0x00, 0x01, 0x00, 0x00, 0x00, 0x70, 0x00, 0x00, 0x00,
  0x1a, 0x00, 0x00, 0x00, 0x73, 0x65, 0x71, 0x75, 0x65, 0x6e, 0x74, 0x69,
  0x61, 0x6c, 0x2f, 0x66, 0x6c, 0x61, 0x74, 0x74, 0x65, 0x6e, 0x2f, 0x52,
  0x65, 0x73, 0x68, 0x61, 0x70, 0x65, 0x00, 0x00, 0x02, 0x00, 0x00, 0x00,
  0xff, 0xff, 0xff, 0xff, 0x70, 0x00, 0x00, 0x00, 0x2c, 0xd1, 0xff, 0xff,
  0x3e, 0xfe, 0xff, 0xff, 0x00, 0x00, 0x00, 0x05, 0x01, 0x00, 0x00, 0x00,
  0x38, 0x00, 0x00, 0x00, 0x2c, 0x00, 0x00, 0x00, 0x14, 0x00, 0x00, 0x00,
  0x00, 0x00, 0x0e, 0x00, 0x14, 0x00, 0x00, 0x00, 0x10, 0x00, 0x0c, 0x00,
  0x08, 0x00, 0x04, 0x00, 0x0e, 0x00, 0x00, 0x00, 0x03, 0x00, 0x00, 0x00,
  0x01, 0x00, 0x00, 0x00, 0x03, 0x00, 0x00, 0x00, 0x01, 0x00, 0x00, 0x00,
  0x01, 0x00, 0x00, 0x00, 0x0d, 0x00, 0x00, 0x00, 0x01, 0x00, 0x00, 0x00,
  0x0c, 0x00, 0x00, 0x00, 0xe8, 0xd1, 0xff, 0xff, 0x14, 0x00, 0x00, 0x00,
  0x0e, 0x00, 0x00, 0x00, 0x20, 0x00, 0x00, 0x00, 0x58, 0x00, 0x00, 0x00,
  0x40, 0x00, 0x00, 0x00, 0x04, 0x00, 0x00, 0x00, 0x01, 0x00, 0x00, 0x00,
  0x07, 0x00, 0x00, 0x00, 0x01, 0x00, 0x00, 0x00, 0x10, 0x00, 0x00, 0x00,
  0x22, 0x00, 0x00, 0x00, 0x73, 0x65, 0x71, 0x75, 0x65, 0x6e, 0x74, 0x69,
  0x61, 0x6c, 0x2f, 0x6d, 0x61, 0x78, 0x5f, 0x70, 0x6f, 0x6f, 0x6c, 0x69,
  0x6e, 0x67, 0x32, 0x64, 0x5f, 0x31, 0x2f, 0x4d, 0x61, 0x78, 0x50, 0x6f,
  0x6f, 0x6c, 0x00, 0x00, 0x04, 0x00, 0x00, 0x00, 0xff, 0xff, 0xff, 0xff,
  0x07, 0x00, 0x00, 0x00, 0x01, 0x00, 0x00, 0x00, 0x10, 0x00, 0x00, 0x00,
  0xe4, 0xd1, 0xff, 0xff, 0x1a, 0xfe, 0xff, 0xff, 0x00, 0x00, 0x00, 0x01,
  0x24, 0x00, 0x00, 0x00, 0x18, 0x00, 0x00, 0x00, 0x04, 0x00, 0x00, 0x00,
  0x0c, 0xfe, 0xff, 0xff, 0x01, 0x00, 0x00, 0x00, 0x01, 0x00, 0x00, 0x00,
  0x00, 0x00, 0x00, 0x01, 0x01, 0x00, 0x00, 0x00, 0x0c, 0x00, 0x00, 0x00,
  0x03, 0x00, 0x00, 0x00, 0x0b, 0x00, 0x00, 0x00, 0x09, 0x00, 0x00, 0x00,
  0x02, 0x00, 0x00, 0x00, 0x90, 0xd2, 0xff, 0xff, 0x14, 0x00, 0x00, 0x00,
  0x0d, 0x00, 0x00, 0x00, 0x20, 0x00, 0x00, 0x00, 0xb8, 0x00, 0x00, 0x00,
  0xa0, 0x00, 0x00, 0x00, 0x04, 0x00, 0x00, 0x00, 0x01, 0x00, 0x00, 0x00,
  0x15, 0x00, 0x00, 0x00, 0x01, 0x00, 0x00, 0x00, 0x10, 0x00, 0x00, 0x00,
  0x83, 0x00, 0x00, 0x00, 0x73, 0x65, 0x71, 0x75, 0x65, 0x6e, 0x74, 0x69,
  0x61, 0x6c, 0x2f, 0x63, 0x6f, 0x6e, 0x76, 0x32, 0x64, 0x5f, 0x31, 0x2f,
  0x52, 0x65, 0x6c, 0x75, 0x3b, 0x73, 0x65, 0x71, 0x75, 0x65, 0x6e, 0x74,
  0x69, 0x61, 0x6c, 0x2f, 0x63, 0x6f, 0x6e, 0x76, 0x32, 0x64, 0x5f, 0x31,
  0x2f, 0x42, 0x69, 0x61, 0x73, 0x41, 0x64, 0x64, 0x3b, 0x73, 0x65, 0x71,
  0x75, 0x65, 0x6e, 0x74, 0x69, 0x61, 0x6c, 0x2f, 0x63, 0x6f, 0x6e, 0x76,
  0x32, 0x64, 0x5f, 0x31, 0x2f, 0x43, 0x6f, 0x6e, 0x76, 0x32, 0x44, 0x3b,
  0x73, 0x65, 0x71, 0x75, 0x65, 0x6e, 0x74, 0x69, 0x61, 0x6c, 0x2f, 0x63,
  0x6f, 0x6e, 0x76, 0x32, 0x64, 0x5f, 0x31, 0x2f, 0x42, 0x69, 0x61, 0x73,
  0x41, 0x64, 0x64, 0x2f, 0x52, 0x65, 0x61, 0x64, 0x56, 0x61, 0x72, 0x69,
  0x61, 0x62, 0x6c, 0x65, 0x4f, 0x70, 0x2f, 0x72, 0x65, 0x73, 0x6f, 0x75,
  0x72, 0x63, 0x65, 0x00, 0x04, 0x00, 0x00, 0x00, 0xff, 0xff, 0xff, 0xff,
  0x15, 0x00, 0x00, 0x00, 0x01, 0x00, 0x00, 0x00, 0x10, 0x00, 0x00, 0x00,
  0xfc, 0xd3, 0xff, 0xff, 0x00, 0x00, 0x0e, 0x00, 0x1a, 0x00, 0x08, 0x00,
  0x0c, 0x00, 0x10, 0x00, 0x07, 0x00, 0x14, 0x00, 0x0e, 0x00, 0x00, 0x00,
  0x00, 0x00, 0x00, 0x05, 0x01, 0x00, 0x00, 0x00, 0x3c, 0x00, 0x00, 0x00,
  0x30, 0x00, 0x00, 0x00, 0x14, 0x00, 0x00, 0x00, 0x00, 0x00, 0x0e, 0x00,
  0x18, 0x00, 0x17, 0x00, 0x10, 0x00, 0x0c, 0x00, 0x08, 0x00, 0x04, 0x00,
  0x0e, 0x00, 0x00, 0x00, 0x03, 0x00, 0x00, 0x00, 0x03, 0x00, 0x00, 0x00,
  0x03, 0x00, 0x00, 0x00, 0x03, 0x00, 0x00, 0x00, 0x00, 0x00, 0x00, 0x01,
  0x01, 0x00, 0x00, 0x00, 0x0b, 0x00, 0x00, 0x00, 0x01, 0x00, 0x00, 0x00,
  0x0a, 0x00, 0x00, 0x00, 0x2c, 0xff, 0xff, 0xff, 0x11, 0x00, 0x00, 0x00,
  0x00, 0x00, 0x00, 0x11, 0x01, 0x00, 0x00, 0x00, 0xcc, 0xd3, 0xff, 0xff,
  0x14, 0x00, 0x00, 0x00, 0x0c, 0x00, 0x00, 0x00, 0x20, 0x00, 0x00, 0x00,
  0x58, 0x00, 0x00, 0x00, 0x40, 0x00, 0x00, 0x00, 0x04, 0x00, 0x00, 0x00,
  0x01, 0x00, 0x00, 0x00, 0x15, 0x00, 0x00, 0x00, 0x01, 0x00, 0x00, 0x00,
  0x08, 0x00, 0x00, 0x00, 0x20, 0x00, 0x00, 0x00, 0x73, 0x65, 0x71, 0x75,
  0x65, 0x6e, 0x74, 0x69, 0x61, 0x6c, 0x2f, 0x6d, 0x61, 0x78, 0x5f, 0x70,
  0x6f, 0x6f, 0x6c, 0x69, 0x6e, 0x67, 0x32, 0x64, 0x2f, 0x4d, 0x61, 0x78,
  0x50, 0x6f, 0x6f, 0x6c, 0x00, 0x00, 0x00, 0x00, 0x04, 0x00, 0x00, 0x00,
  0xff, 0xff, 0xff, 0xff, 0x15, 0x00, 0x00, 0x00, 0x01, 0x00, 0x00, 0x00,
  0x08, 0x00, 0x00, 0x00, 0xd8, 0xd4, 0xff, 0xff, 0x00, 0x00, 0x0e, 0x00,
  0x14, 0x00, 0x00, 0x00, 0x08, 0x00, 0x0c, 0x00, 0x07, 0x00, 0x10, 0x00,
  0x0e, 0x00, 0x00, 0x00, 0x00, 0x00, 0x00, 0x01, 0x30, 0x00, 0x00, 0x00,
  0x24, 0x00, 0x00, 0x00, 0x10, 0x00, 0x00, 0x00, 0x0c, 0x00, 0x10, 0x00,
  0x00, 0x00, 0x04, 0x00, 0x08, 0x00, 0x0f, 0x00, 0x0c, 0x00, 0x00, 0x00,
  0x01, 0x00, 0x00, 0x00, 0x01, 0x00, 0x00, 0x00, 0x00, 0x00, 0x00, 0x01,
  0x01, 0x00, 0x00, 0x00, 0x0a, 0x00, 0x00, 0x00, 0x03, 0x00, 0x00, 0x00,
  0x00, 0x00, 0x00, 0x00, 0x08, 0x00, 0x00, 0x00, 0x01, 0x00, 0x00, 0x00,
  0x0c, 0x00, 0x10, 0x00, 0x0b, 0x00, 0x00, 0x00, 0x0c, 0x00, 0x04, 0x00,
  0x0c, 0x00, 0x00, 0x00, 0x03, 0x00, 0x00, 0x00, 0x00, 0x00, 0x00, 0x03,
  0x01, 0x00, 0x00, 0x00, 0xac, 0xd4, 0xff, 0xff, 0x14, 0x00, 0x00, 0x00,
  0x0b, 0x00, 0x00, 0x00, 0x20, 0x00, 0x00, 0x00, 0xb0, 0x00, 0x00, 0x00,
  0x98, 0x00, 0x00, 0x00, 0x04, 0x00, 0x00, 0x00, 0x01, 0x00, 0x00, 0x00,
  0x40, 0x00, 0x00, 0x00, 0x03, 0x00, 0x00, 0x00, 0x08, 0x00, 0x00, 0x00,
  0x7b, 0x00, 0x00, 0x00, 0x73, 0x65, 0x71, 0x75, 0x65, 0x6e, 0x74, 0x69,
  0x61, 0x6c, 0x2f, 0x63, 0x6f, 0x6e, 0x76, 0x32, 0x64, 0x2f, 0x52, 0x65,
  0x6c, 0x75, 0x3b, 0x73, 0x65, 0x71, 0x75, 0x65, 0x6e, 0x74, 0x69, 0x61,
  0x6c, 0x2f, 0x63, 0x6f, 0x6e, 0x76, 0x32, 0x64, 0x2f, 0x42, 0x69, 0x61,
  0x73, 0x41, 0x64, 0x64, 0x3b, 0x73, 0x65, 0x71, 0x75, 0x65, 0x6e, 0x74,
  0x69, 0x61, 0x6c, 0x2f, 0x63, 0x6f, 0x6e, 0x76, 0x32, 0x64, 0x2f, 0x43,
  0x6f, 0x6e, 0x76, 0x32, 0x44, 0x3b, 0x73, 0x65, 0x71, 0x75, 0x65, 0x6e,
  0x74, 0x69, 0x61, 0x6c, 0x2f, 0x63, 0x6f, 0x6e, 0x76, 0x32, 0x64, 0x2f,
  0x42, 0x69, 0x61, 0x73, 0x41, 0x64, 0x64, 0x2f, 0x52, 0x65, 0x61, 0x64,
  0x56, 0x61, 0x72, 0x69, 0x61, 0x62, 0x6c, 0x65, 0x4f, 0x70, 0x2f, 0x72,
  0x65, 0x73, 0x6f, 0x75, 0x72, 0x63, 0x65, 0x00, 0x04, 0x00, 0x00, 0x00,
  0xff, 0xff, 0xff, 0xff, 0x40, 0x00, 0x00, 0x00, 0x03, 0x00, 0x00, 0x00,
  0x08, 0x00, 0x00, 0x00, 0x00, 0xd5, 0xff, 0xff, 0x0a, 0xd6, 0xff, 0xff,
  0x04, 0x00, 0x00, 0x00, 0x00, 0x08, 0x00, 0x00, 0x44, 0xc6, 0x00, 0xbd,
  0xc2, 0x03, 0x98, 0xbc, 0x20, 0xc9, 0x35, 0xbd, 0x36, 0x82, 0xd0, 0xbd,
  0x38, 0x40, 0xec, 0xbb, 0x5d, 0x90, 0xcb, 0xbe, 0x9b, 0x3d, 0x68, 0xbd,
  0x56, 0x7b, 0x46, 0xbd, 0xe2, 0xfb, 0xc6, 0xbd, 0xd7, 0xf5, 0x35, 0xbc,
  0x4b, 0x00, 0x25, 0xbc, 0x38, 0x1f, 0x0b, 0xbe, 0x3e, 0x30, 0x5e, 0x3d,
  0xc2, 0x92, 0xb5, 0xbc, 0xb1, 0xdd, 0x85, 0xbc, 0xe4, 0x85, 0x21, 0xbc,
  0x0c, 0xd9, 0x01, 0x3e, 0x6b, 0xcb, 0xd2, 0xbc, 0x67, 0x3c, 0xb4, 0xba,
  0x9c, 0x03, 0xd1, 0xbd, 0x50, 0x1d, 0x38, 0x3e, 0xfc, 0xf2, 0x50, 0x3f,
  0xa6, 0x16, 0xef, 0xbd, 0xfe, 0xbb, 0x9a, 0x3c, 0x03, 0x15, 0x51, 0x3a,
  0x3b, 0x63, 0xce, 0xbc, 0x93, 0xf3, 0xce, 0x3c, 0x94, 0x5f, 0xa9, 0xbc,
  0x7f, 0x95, 0x4a, 0x3e, 0x0e, 0x97, 0x96, 0x3d, 0x24, 0xf8, 0x24, 0xbc,
  0xd9, 0x12, 0x6f, 0x3c, 0xe7, 0x98, 0x5e, 0x3e, 0x4d, 0xc8, 0x28, 0xbd,
  0x96, 0x2f, 0x32, 0x3c, 0x98, 0x8c, 0x4f, 0x3e, 0x1e, 0x60, 0x63, 0xbe,
  0x92, 0x03, 0x85, 0xbd, 0x7a, 0xfe, 0x35, 0xbe, 0xcd, 0xdb, 0x0a, 0x3d,
  0x3a, 0x06, 0x00, 0xbe, 0xb2, 0x4a, 0x1e, 0xbc, 0xf8, 0x2e, 0x22, 0x3e,
  0x62, 0xc4, 0x0f, 0xbc, 0x0c, 0x0d, 0x78, 0xbe, 0xeb, 0xe8, 0x97, 0xbd,
  0x96, 0xb6, 0x70, 0xbe, 0x0b, 0xc8, 0x99, 0xbc, 0x57, 0x98, 0x1d, 0x3e,
  0x2f, 0xeb, 0x43, 0xbd, 0x6d, 0xdf, 0x5c, 0xbd, 0x76, 0x49, 0x95, 0x3e,
  0x12, 0xde, 0x85, 0xbe, 0xdb, 0x66, 0xe8, 0xbe, 0xfa, 0x9d, 0x4c, 0xbe,
  0x16, 0xeb, 0xab, 0x3d, 0x10, 0x55, 0xb4, 0x3d, 0x52, 0xee, 0x96, 0x3e,
  0xef, 0x72, 0xab, 0x3e, 0xd6, 0x95, 0xd0, 0xbd, 0xec, 0xc6, 0x34, 0xbe,
  0x23, 0x96, 0xf7, 0xbe, 0xbd, 0xde, 0x74, 0xbe, 0x7e, 0x00, 0xbe, 0x3d,
  0x40, 0xa7, 0x94, 0xbd, 0x6a, 0x03, 0xd1, 0x3b, 0xee, 0xbb, 0x1a, 0xbe,
  0x42, 0xb4, 0x33, 0x3c, 0xd3, 0xe7, 0x18, 0x3d, 0xf0, 0x6b, 0xcf, 0xbe,
  0x23, 0xbb, 0xd2, 0xbe, 0x21, 0x98, 0x34, 0xbe, 0x8c, 0x24, 0xb2, 0xbd,
  0x7a, 0x06, 0x37, 0xbc, 0xcd, 0x88, 0x30, 0xbe, 0x00, 0x08, 0xf0, 0xbb,
  0x1c, 0x34, 0xa5, 0x3e, 0x5f, 0xd2, 0xa8, 0xbe, 0x53, 0x11, 0xa2, 0xbe,
  0x1c, 0xe7, 0x37, 0xbe, 0x38, 0x07, 0x9d, 0xbd, 0x1f, 0x97, 0x59, 0xbc,
  0x2d, 0x3e, 0x0b, 0xbe, 0xcf, 0x85, 0x64, 0xbc, 0x9e, 0x12, 0x61, 0x3e,
  0x1c, 0xf0, 0x9f, 0x3e, 0x44, 0x15, 0x05, 0x3e, 0x99, 0x29, 0x87, 0xbd,
  0xeb, 0xf8, 0x3e, 0x3d, 0x8d, 0x9c, 0xc3, 0x3c, 0x55, 0xa2, 0xef, 0x3d,
  0x75, 0xf9, 0x05, 0xbe, 0xf2, 0x77, 0xa9, 0x3e, 0xfb, 0xe3, 0x0d, 0x3f,
  0xa4, 0xcc, 0xd6, 0x3e, 0xe7, 0x3a, 0xbb, 0x3e, 0xd7, 0xe8, 0x9e, 0xbe,
  0xc8, 0xb0, 0x2f, 0x3e, 0xa7, 0xed, 0x37, 0xbf, 0xd5, 0x72, 0xf1, 0x3b,
  0x16, 0xd0, 0xd6, 0xbd, 0x28, 0xe3, 0x07, 0xbe, 0x18, 0xaa, 0xbc, 0xbe,
  0xf9, 0x87, 0xa6, 0xbe, 0x43, 0x29, 0xcb, 0xbe, 0x32, 0xd1, 0x30, 0x3e,
  0x64, 0x9a, 0xcd, 0xbe, 0x58, 0xbb, 0xf0, 0xbd, 0xc0, 0xfb, 0x85, 0xbe,
  0xd0, 0x71, 0xab, 0xbe, 0x2f, 0x98, 0x8b, 0xbe, 0xe0, 0x07, 0xf7, 0xbc,
  0x23, 0x70, 0x0e, 0xbe, 0x5a, 0x49, 0x8b, 0x3e, 0x1c, 0x01, 0x6e, 0x3d,
  0xe6, 0x50, 0xad, 0xbd, 0xdf, 0xf2, 0xb5, 0xbc, 0xb0, 0xdc, 0xaf, 0xbe,
  0xba, 0x39, 0xfd, 0xbd, 0xa9, 0x11, 0x35, 0x3e, 0x34, 0x1f, 0xe4, 0xbe,
  0x4a, 0x2e, 0x03, 0xbe, 0x2f, 0xa8, 0x83, 0xbe, 0x6d, 0x01, 0x23, 0xbd,
  0x6d, 0x1e, 0x8b, 0xbe, 0x5d, 0xd0, 0x09, 0xbf, 0x2e, 0x0c, 0xb1, 0xbd,
  0x08, 0x58, 0x89, 0xbe, 0xf8, 0x5e, 0x0c, 0xbe, 0xaf, 0x0a, 0xbf, 0xbc,
  0x45, 0x6b, 0x4a, 0xbd, 0x56, 0x2e, 0xd9, 0x3c, 0x8d, 0x92, 0x17, 0x3e,
  0x6f, 0xe4, 0xde, 0xba, 0x79, 0x41, 0x8a, 0xbd, 0x02, 0xa7, 0x39, 0xbe,
  0x9e, 0x12, 0xb8, 0xbe, 0xe2, 0xf3, 0x00, 0xbe, 0x4d, 0x42, 0xa2, 0xbe,
  0x58, 0xe9, 0x1e, 0xbe, 0x49, 0xb6, 0x15, 0x3e, 0xf4, 0x5a, 0x30, 0xbd,
  0x14, 0xdb, 0x33, 0xbe, 0x17, 0x31, 0x44, 0xbe, 0x31, 0xd4, 0xc5, 0xbe,
  0xef, 0x65, 0x96, 0xbe, 0x94, 0xcc, 0xa0, 0xbd, 0x11, 0xb2, 0xd3, 0xbc,
  0xf0, 0xf4, 0x58, 0x3e, 0x07, 0x85, 0x8c, 0xbd, 0xb1, 0xb2, 0xeb, 0xbe,
  0x67, 0xf2, 0xde, 0x3d, 0x36, 0x2a, 0xc1, 0x3c, 0x85, 0xb0, 0x7e, 0x3e,
  0x7e, 0x1c, 0xb1, 0xbe, 0xc5, 0x18, 0xc5, 0x3d, 0x31, 0x97, 0x2e, 0xbe,
  0xe5, 0x32, 0x7d, 0xbc, 0x61, 0x21, 0x8a, 0xbe, 0x86, 0xe7, 0xdb, 0xbc,
  0x0f, 0x2b, 0x58, 0xbe, 0x52, 0xe9, 0xdd, 0xbe, 0x9d, 0xaa, 0x60, 0x3d,
  0xe5, 0x46, 0xd1, 0xbd, 0xd1, 0x5e, 0x32, 0x3e, 0xac, 0x4e, 0xa7, 0x3e,
  0xb2, 0x1c, 0x3a, 0x3e, 0xf2, 0x17, 0x9a, 0xbe, 0x4f, 0x00, 0xa1, 0x3d,
  0xcd, 0xe0, 0xe1, 0xbe, 0x95, 0x69, 0x3a, 0xbe, 0xd5, 0xa6, 0xea, 0x3d,
  0x33, 0x8b, 0xd1, 0x3e, 0x75, 0xcc, 0x10, 0x3e, 0x17, 0x19, 0x44, 0xbe,
  0x74, 0x88, 0x11, 0xbf, 0xc1, 0x0d, 0x46, 0xbe, 0x5c, 0xd7, 0xc5, 0xbe,
  0xc9, 0xdc, 0x95, 0xbd, 0xad, 0xa4, 0x85, 0x3e, 0xb5, 0xfb, 0x45, 0x3e,
  0x5d, 0x71, 0xcf, 0x3e, 0xc4, 0x39, 0xb5, 0x3d, 0x02, 0xd6, 0x8f, 0xbe,
  0xb8, 0x29, 0x21, 0xbe, 0x5a, 0x8f, 0x98, 0xbe, 0x9b, 0xce, 0xd9, 0x3d,
  0x9d, 0xa3, 0x7f, 0x3e, 0x6f, 0xb1, 0xf9, 0x3d, 0x3d, 0x62, 0x75, 0x3e,
  0x76, 0x8f, 0x52, 0x3e, 0x4e, 0xd2, 0x43, 0xbe, 0x23, 0xe2, 0x9d, 0xbd,
  0xd4, 0x93, 0xfb, 0x3e, 0x50, 0x39, 0x06, 0x3e, 0x88, 0x3d, 0x59, 0xbd,
  0x43, 0xb6, 0x8d, 0xbe, 0x8b, 0xaf, 0x03, 0xbe, 0xaf, 0x30, 0x26, 0x3e,
  0x97, 0x9f, 0x42, 0xbe, 0x3a, 0x36, 0xfe, 0xbd, 0x02, 0x5d, 0xa6, 0xbd,
  0x75, 0xbc, 0xf7, 0x3d, 0xae, 0x97, 0x74, 0xbd, 0x73, 0xda, 0x39, 0xbe,
  0xd8, 0xb5, 0x5a, 0xbe, 0x79, 0x1f, 0xe2, 0x3d, 0x5f, 0x1d, 0x4b, 0xbe,
  0xb3, 0xc5, 0x1f, 0xbe, 0xa9, 0x95, 0x29, 0x3c, 0x44, 0x9d, 0x8c, 0x3c,
  0xc3, 0x88, 0x0a, 0xbb, 0xfc, 0xfe, 0x2c, 0x3d, 0xcc, 0xda, 0xc9, 0xbd,
  0x68, 0xfd, 0x93, 0x3d, 0x3b, 0x8c, 0x4e, 0xbe, 0xe0, 0xc1, 0xdf, 0xbd,
  0xd5, 0x3d, 0x2b, 0xbd, 0xf3, 0x99, 0x9c, 0xbc, 0xe8, 0x08, 0xab, 0xbd,
  0x50, 0x71, 0x9b, 0x3d, 0x6c, 0xf1, 0x96, 0x3c, 0x5f, 0x63, 0xf2, 0xbd,
  0x43, 0x8d, 0x4d, 0xbe, 0x9e, 0x8c, 0x5e, 0xbe, 0x89, 0xe1, 0xed, 0xbd,
  0xdf, 0xd5, 0xfd, 0x3c, 0xf0, 0x77, 0x17, 0xbe, 0x9a, 0x86, 0xe3, 0xbe,
  0x21, 0xff, 0x7e, 0xbe, 0xc5, 0xe7, 0x13, 0x3d, 0x28, 0x7b, 0x44, 0xbe,
  0xfc, 0x35, 0x69, 0x3e, 0xb1, 0xc8, 0xd4, 0x3d, 0x55, 0xc3, 0x9f, 0xbe,
  0x67, 0x0b, 0x97, 0x3b, 0xb1, 0x20, 0x02, 0xbf, 0xac, 0xa0, 0x00, 0xbf,
  0xba, 0x4e, 0x61, 0xbf, 0x06, 0xbd, 0xd7, 0xbd, 0x61, 0x21, 0x7e, 0x3d,
  0x23, 0xcf, 0x29, 0x3d, 0xd6, 0xec, 0xe3, 0xbe, 0xea, 0xbf, 0xeb, 0x3d,
  0x3c, 0x8f, 0x18, 0xbf, 0x9e, 0xe7, 0xc3, 0xbe, 0x06, 0x4a, 0x42, 0xbf,
  0x44, 0x16, 0xbf, 0xbe, 0xc8, 0xee, 0x9b, 0xbc, 0xcc, 0xfc, 0x43, 0x3e,
  0x9d, 0x5a, 0xec, 0xbe, 0x3c, 0x5b, 0x17, 0x3e, 0x53, 0x5f, 0x7c, 0x3e,
  0xd1, 0xc7, 0x4a, 0xbd, 0xae, 0xcc, 0x01, 0xbf, 0xd6, 0x21, 0x0c, 0xbd,
  0x4a, 0x65, 0x74, 0xbe, 0x52, 0x42, 0x7e, 0x3b, 0xbb, 0x47, 0x9a, 0xbe,
  0x48, 0x69, 0x9f, 0x3d, 0xc8, 0x94, 0x39, 0xbc, 0x91, 0x4a, 0x2e, 0xbe,
  0x3f, 0x2b, 0xe4, 0xbe, 0xf4, 0x1c, 0x3b, 0xbe, 0x4b, 0xd5, 0x73, 0x3d,
  0x2d, 0x85, 0x9c, 0x3e, 0x0e, 0x65, 0xe6, 0xbe, 0x4c, 0x08, 0xff, 0x3d,
  0xa5, 0x0a, 0x86, 0x3e, 0x2a, 0x22, 0xbe, 0x3d, 0x47, 0xeb, 0x34, 0xbe,
  0xcc, 0x0f, 0xd1, 0xbe, 0x2f, 0x47, 0x06, 0xbf, 0xb1, 0x5c, 0xa1, 0x3d,
  0xa7, 0x2f, 0xf1, 0xbd, 0xfb, 0xa7, 0xde, 0x3d, 0x66, 0xde, 0xaa, 0x3e,
  0xbe, 0xd2, 0xab, 0x3e, 0x73, 0x03, 0x2d, 0x3e, 0x72, 0x55, 0x84, 0xbe,
  0xe1, 0xad, 0xba, 0xbe, 0x28, 0x33, 0x77, 0x3d, 0xd8, 0x70, 0xe3, 0xbd,
  0x8b, 0xd2, 0x85, 0x3d, 0x1a, 0x90, 0xb6, 0x3e, 0x65, 0x9f, 0xe1, 0xbd,
  0xe1, 0xe2, 0x99, 0x3e, 0xd0, 0x0c, 0x11, 0x3c, 0x88, 0x9a, 0x7c, 0x3e,
  0x35, 0x07, 0x65, 0xbe, 0xe1, 0xbb, 0x53, 0xbe, 0x47, 0x84, 0x0f, 0xbe,
  0x52, 0x56, 0x8b, 0x3e, 0xe3, 0x4d, 0x36, 0x3e, 0xe3, 0x68, 0xdd, 0xbd,
  0x87, 0xf0, 0x9c, 0xbe, 0xda, 0x0e, 0x51, 0xbe, 0xbe, 0x03, 0x89, 0xbe,
  0x63, 0xea, 0x2a, 0xbe, 0x29, 0xcd, 0x04, 0x3e, 0x1d, 0x39, 0x79, 0xbd,
  0xe4, 0x2a, 0x4c, 0xbc, 0x8e, 0x29, 0xab, 0x3e, 0x9b, 0x69, 0x32, 0xbe,
  0x33, 0x7e, 0x17, 0xbe, 0x23, 0x41, 0x49, 0xbe, 0xd4, 0xd0, 0x66, 0xbd,
  0xd9, 0x7f, 0xf0, 0x3a, 0x28, 0xb6, 0x81, 0x3e, 0xf7, 0xb8, 0x8a, 0x3e,
  0x05, 0x08, 0x02, 0x3d, 0x2b, 0x38, 0x46, 0xbc, 0x57, 0x6b, 0xa3, 0x3c,
  0x70, 0xcd, 0x4e, 0xbe, 0x44, 0x86, 0xde, 0xbc, 0x03, 0xb4, 0x09, 0xbd,
  0x00, 0x2b, 0xed, 0x3d, 0x85, 0xd8, 0x83, 0x3d, 0xf8, 0xa9, 0xaa, 0x3d,
  0x97, 0xff, 0x25, 0xbb, 0x72, 0x2d, 0x24, 0xbd, 0xfb, 0xaa, 0xc7, 0x3e,
  0x06, 0xa9, 0x86, 0x3e, 0x9d, 0x96, 0x71, 0xbb, 0x5b, 0x03, 0xa6, 0x3e,
  0xbb, 0x98, 0xdd, 0xbd, 0x3f, 0x58, 0x40, 0x3c, 0x28, 0x3e, 0xee, 0x3d,
  0xbd, 0xa6, 0x5a, 0xbe, 0xf0, 0x53, 0x84, 0xbd, 0xf2, 0x37, 0xce, 0xbc,
  0x07, 0xfb, 0x06, 0xbd, 0x51, 0x6e, 0x9f, 0x3e, 0x8a, 0xe5, 0xbe, 0xbd,
  0x16, 0x17, 0x87, 0xbd, 0x3c, 0x2f, 0xd9, 0x3c, 0xe5, 0x35, 0x3c, 0xbe,
  0xec, 0xec, 0xeb, 0xbd, 0xaf, 0x3a, 0xc2, 0xbe, 0xd2, 0x73, 0x6f, 0xbd,
  0xd4, 0xce, 0x9a, 0x3e, 0x2f, 0x36, 0x4e, 0x3e, 0xab, 0x41, 0x00, 0xbf,
  0xa1, 0x22, 0x1a, 0xbe, 0x9a, 0x97, 0x8b, 0xbe, 0x8c, 0xf2, 0x0e, 0xbe,
  0x06, 0x66, 0xc9, 0xbe, 0x03, 0x0b, 0x3d, 0xbe, 0x01, 0xb3, 0x09, 0x3e,
  0xe5, 0x61, 0xa6, 0x3e, 0x49, 0xe0, 0xe1, 0xbd, 0xb8, 0x3b, 0x89, 0xbd,
  0x2d, 0x12, 0xf2, 0xbd, 0xbb, 0x9e, 0x64, 0x3e, 0x74, 0x73, 0x81, 0xbd,
  0x00, 0xdb, 0x8e, 0xbe, 0xec, 0xea, 0xc1, 0xbe, 0xef, 0xef, 0x03, 0xbe,
  0x7b, 0xbf, 0x1e, 0xbd, 0x09, 0xac, 0x9e, 0xbd, 0x92, 0x75, 0x0b, 0x3f,
  0xd4, 0x04, 0x1f, 0xbe, 0xaf, 0xb5, 0x92, 0xbe, 0x7e, 0x94, 0x43, 0xbe,
  0x89, 0xe7, 0x78, 0x3e, 0xcc, 0xc1, 0x8d, 0x3e, 0xbd, 0xf4, 0x33, 0xbe,
  0xd8, 0x44, 0xb2, 0xbe, 0xf4, 0x53, 0x39, 0xbb, 0x03, 0x81, 0x81, 0xbe,
  0xaf, 0xcb, 0xd6, 0xbe, 0xe5, 0x2f, 0x1f, 0x3e, 0xb9, 0x1f, 0xbf, 0x3e,
  0xc4, 0x1b, 0x51, 0x3e, 0x70, 0x0f, 0xa4, 0x3d, 0xc9, 0x9b, 0x9b, 0xbe,
  0x57, 0xaf, 0x84, 0xbe, 0xe2, 0x09, 0x5b, 0xbe, 0x06, 0x41, 0xd4, 0xbd,
  0x0f, 0xf8, 0x29, 0xbe, 0xa0, 0xcd, 0xfc, 0xbd, 0x3e, 0xcd, 0x62, 0x3e,
  0xc7, 0xe7, 0x90, 0x3e, 0x58, 0x49, 0xda, 0x3c, 0xd0, 0xcb, 0x9f, 0x3e,
  0x82, 0xfa, 0x9a, 0xbd, 0x25, 0xd9, 0x68, 0xbd, 0x84, 0x8e, 0x0a, 0xbf,
  0x2a, 0x88, 0x5f, 0xbe, 0x78, 0x61, 0xbf, 0x3c, 0xff, 0x32, 0x3c, 0x3d,
  0xcc, 0x8b, 0xa1, 0x3e, 0x83, 0xc9, 0x4a, 0x3e, 0x81, 0x96, 0x8f, 0x3d,
  0x1c, 0x4b, 0xae, 0x3d, 0x41, 0x03, 0xa8, 0xbe, 0x0a, 0x46, 0x2e, 0x3c,
  0x00, 0x0f, 0x26, 0x3e, 0x52, 0x81, 0x77, 0xbd, 0xfb, 0x3a, 0xcc, 0x3e,
  0x55, 0x25, 0x1c, 0xbe, 0xe2, 0xd2, 0x92, 0xbb, 0x0e, 0xb2, 0x65, 0xbd,
  0x71, 0xc3, 0x8a, 0xbe, 0x71, 0xd9, 0xa5, 0x3d, 0x00, 0x8f, 0xae, 0x3e,
  0x19, 0x6e, 0x43, 0x3d, 0x89, 0x43, 0x8f, 0xbd, 0xa0, 0xd2, 0x3a, 0xbe,
  0xea, 0xe4, 0x5b, 0xbe, 0xc6, 0xc1, 0x6a, 0x3e, 0x2f, 0xba, 0xa5, 0xbe,
  0x3e, 0xf8, 0x60, 0x3e, 0xf9, 0xba, 0xed, 0x3c, 0x49, 0xb6, 0xf1, 0xbd,
  0x74, 0x13, 0x07, 0xbe, 0x8b, 0x5d, 0x61, 0xbb, 0xbc, 0xac, 0x9c, 0x3d,
  0x3f, 0x05, 0x92, 0xbd, 0xe2, 0x06, 0x59, 0x3e, 0xca, 0x97, 0x89, 0x3e,
  0x19, 0xd5, 0xf4, 0xbd, 0xf2, 0xce, 0x92, 0xbd, 0xc3, 0xb6, 0x3e, 0x3d,
  0xeb, 0x76, 0x10, 0xbe, 0x5f, 0x5a, 0xc2, 0x3d, 0x03, 0xe3, 0xc4, 0x3e,
  0x66, 0xea, 0x9e, 0xbd, 0x3c, 0x48, 0xae, 0x3d, 0x4d, 0x13, 0xd0, 0xbd,
  0x74, 0x0a, 0xc4, 0x3d, 0x89, 0x1d, 0x5a, 0x3e, 0x17, 0x24, 0x8d, 0xbd,
  0x1b, 0x53, 0xe5, 0x3c, 0x88, 0xfd, 0x9b, 0xbd, 0x3b, 0xc6, 0xf8, 0xbd,
  0xe1, 0xab, 0xa1, 0xbd, 0xb9, 0x12, 0x3a, 0x3e, 0x92, 0xba, 0x8b, 0xbd,
  0x69, 0x08, 0x11, 0xbd, 0x5d, 0x93, 0x38, 0xbe, 0xb7, 0x6f, 0x4b, 0xbd,
  0xaf, 0xa4, 0x0f, 0xbd, 0xd2, 0x37, 0xe3, 0xbd, 0xbe, 0x20, 0xa7, 0xbe,
  0x51, 0x99, 0x94, 0xbe, 0xae, 0x1a, 0xea, 0xbd, 0xb8, 0x88, 0xc8, 0xbd,
  0xd7, 0x9c, 0x9c, 0x3b, 0x46, 0x75, 0x35, 0xbe, 0x55, 0x4d, 0xeb, 0x3e,
  0x95, 0xea, 0x36, 0xbf, 0x1b, 0xa0, 0x51, 0x3e, 0xf7, 0xc4, 0x12, 0x3e,
  0x04, 0x1c, 0x4d, 0x3c, 0xb4, 0x8a, 0xfb, 0x3d, 0xd4, 0x3a, 0x96, 0xbe,
  0xd7, 0x57, 0x40, 0xbe, 0xfa, 0xa7, 0xbd, 0xbd, 0x81, 0xfd, 0xf7, 0xbe,
  0xcb, 0xbe, 0x5a, 0x3e, 0x48, 0x99, 0x4c, 0x3e, 0x0f, 0x80, 0x83, 0xbe,
  0x03, 0xd1, 0x6b, 0xbe, 0xd9, 0xe6, 0xb8, 0x3a, 0x7a, 0x27, 0xd5, 0xbd,
  0x0b, 0x08, 0x00, 0xbe, 0x2a, 0x65, 0xfc, 0xbd, 0x37, 0x97, 0x29, 0x3e,
  0x30, 0x9d, 0x09, 0xbc, 0x56, 0x33, 0xa3, 0xbe, 0xf6, 0x16, 0x92, 0xbe,
  0xc1, 0x6d, 0x6c, 0x3e, 0x3a, 0xfb, 0x00, 0x3f, 0xc6, 0xea, 0x96, 0xbe,
  0x45, 0x1a, 0x8b, 0x3e, 0xe3, 0xd5, 0xc2, 0x3c, 0x91, 0x41, 0x36, 0x3d,
  0x0a, 0xd2, 0xb0, 0xbe, 0xca, 0x7e, 0x61, 0xbe, 0x97, 0xdd, 0x01, 0x3d,
  0xf2, 0x95, 0xd9, 0xbd, 0x96, 0x9a, 0xc8, 0x3e, 0x07, 0xc1, 0x79, 0xbc,
  0xf1, 0xff, 0xe4, 0x3e, 0x89, 0x43, 0x10, 0xbe, 0xfa, 0xc7, 0x37, 0x3e,
  0x1e, 0x2c, 0xff, 0x3d, 0xa5, 0x84, 0x94, 0x3e, 0x06, 0x0c, 0x35, 0xbe,
  0x5c, 0x75, 0x50, 0x3e, 0xad, 0x04, 0xf2, 0xbd, 0xea, 0x2b, 0x01, 0x3e,
  0x12, 0xb5, 0x01, 0x3f, 0x0a, 0xc8, 0xf5, 0xbd, 0x61, 0x95, 0x35, 0xbe,
  0x7f, 0x33, 0x42, 0x3e, 0x76, 0xfa, 0x5d, 0xbe, 0x01, 0xb1, 0xcf, 0xbd,
  0xb5, 0x8a, 0x84, 0xbc, 0xec, 0x74, 0x76, 0x3e, 0x94, 0xd2, 0xc3, 0x3e,
  0x97, 0xb3, 0xb2, 0xbc, 0xfb, 0x0b, 0x8a, 0xbe, 0x4a, 0x4c, 0xbd, 0x3c,
  0x32, 0xf0, 0x6f, 0xbe, 0x5c, 0x26, 0x02, 0xbe, 0xe6, 0x7b, 0xc7, 0x3d,
  0x12, 0x76, 0xd3, 0xbd, 0x78, 0x50, 0x9e, 0xbd, 0xe1, 0x09, 0x9d, 0xbe,
  0xc8, 0xac, 0xa2, 0xbe, 0xe2, 0xdd, 0xff, 0xff, 0x10, 0x00, 0x00, 0x00,
  0x0a, 0x00, 0x00, 0x00, 0x1c, 0x00, 0x00, 0x00, 0x38, 0x00, 0x00, 0x00,
  0x04, 0x00, 0x00, 0x00, 0x10, 0x00, 0x00, 0x00, 0x04, 0x00, 0x00, 0x00,
  0x01, 0x00, 0x00, 0x00, 0x08, 0x00, 0x00, 0x00, 0x1a, 0x00, 0x00, 0x00,
  0x73, 0x65, 0x71, 0x75, 0x65, 0x6e, 0x74, 0x69, 0x61, 0x6c, 0x2f, 0x63,
  0x6f, 0x6e, 0x76, 0x32, 0x64, 0x5f, 0x31, 0x2f, 0x43, 0x6f, 0x6e, 0x76,
  0x32, 0x44, 0x00, 0x00, 0x58, 0xdd, 0xff, 0xff, 0x62, 0xde, 0xff, 0xff,
  0x04, 0x00, 0x00, 0x00, 0x80, 0x01, 0x00, 0x00, 0xaa, 0x0d, 0x13, 0x3d,
  0x9e, 0x0d, 0xd2, 0xbc, 0x25, 0xcd, 0x8f, 0xbe, 0x68, 0xde, 0x4e, 0xbe,
  0x98, 0xcc, 0x85, 0xbe, 0x58, 0x08, 0x35, 0xbd, 0x2b, 0x73, 0xa1, 0x3e,
  0x2a, 0x91, 0x1d, 0x3d, 0x6b, 0x2c, 0xc1, 0x3d, 0xea, 0x6e, 0x81, 0x3e,
  0x0e, 0xa3, 0x08, 0x3e, 0x09, 0x6d, 0x73, 0x3e, 0x17, 0xc5, 0x4c, 0xbd,
  0x74, 0x2a, 0x95, 0x3d, 0x19, 0xd8, 0xaa, 0xbd, 0x14, 0xef, 0x9a, 0xbd,
  0x1f, 0x73, 0x9f, 0x3d, 0xe5, 0x95, 0xfd, 0xbc, 0x08, 0x92, 0xa9, 0xbd,
  0xe6, 0x71, 0xd5, 0x3d, 0xb2, 0x80, 0xd4, 0xbd, 0xc1, 0x63, 0xd4, 0xbc,
  0xd4, 0x8c, 0xcf, 0x3d, 0x4c, 0x47, 0x2d, 0xbe, 0xf4, 0x53, 0x20, 0x3e,
  0x6d, 0xb6, 0x96, 0xbe, 0x1f, 0xe7, 0x76, 0xbc, 0xec, 0x6f, 0x4e, 0xbc,
  0x32, 0x7e, 0x9a, 0xbe, 0x92, 0xde, 0xf7, 0x3b, 0xc5, 0x03, 0x77, 0xbe,
  0x9e, 0x3a, 0x87, 0x3e, 0x6a, 0x27, 0x8e, 0x3c, 0x36, 0x86, 0xb4, 0xbd,
  0x8f, 0x6d, 0x39, 0xbc, 0x08, 0xfd, 0x22, 0xbe, 0xef, 0xa8, 0xe2, 0x3e,
  0xd8, 0x6d, 0x32, 0x3e, 0x87, 0xbe, 0xce, 0xbc, 0x75, 0x2b, 0x39, 0xbe,
  0xc3, 0x8c, 0x2b, 0x3d, 0x67, 0x24, 0xec, 0x3d, 0x94, 0xcb, 0x7a, 0xbd,
  0x12, 0x9d, 0x07, 0xbe, 0xad, 0xc4, 0x69, 0x3e, 0x8d, 0x0a, 0xba, 0x3d,
  0x1c, 0x1c, 0xa2, 0x3d, 0xb4, 0x7c, 0xa7, 0xbe, 0x4f, 0x9b, 0x31, 0xbe,
  0x30, 0x9f, 0xfe, 0x3d, 0x9d, 0x4f, 0x29, 0x3e, 0xfc, 0x96, 0x59, 0xbe,
  0xaf, 0xb8, 0x89, 0x3e, 0x71, 0x0b, 0x78, 0x3e, 0xf8, 0xea, 0xb7, 0x3e,
  0xbf, 0x08, 0x6b, 0xbe, 0x3c, 0xcf, 0x3e, 0xbe, 0x0f, 0x22, 0x79, 0x3d,
  0x2c, 0x9e, 0x49, 0xbe, 0x5b, 0xfc, 0x73, 0xbe, 0x10, 0xff, 0xbe, 0x3e,
  0x86, 0xb3, 0xc2, 0x3e, 0xa6, 0x43, 0x32, 0xbe, 0xca, 0x79, 0xcb, 0xbb,
  0x42, 0xa8, 0x81, 0xbe, 0x8c, 0xa9, 0xad, 0xbe, 0xb2, 0x57, 0xbf, 0xbe,
  0xb1, 0x9c, 0x07, 0xbe, 0x10, 0xf7, 0xe4, 0x3e, 0x57, 0x88, 0x9c, 0xbc,
  0x24, 0x98, 0x44, 0xbc, 0xef, 0x14, 0x1d, 0x3d, 0xa2, 0x83, 0x0e, 0xbe,
  0x0e, 0xb1, 0x00, 0x3e, 0x03, 0x17, 0x83, 0x3e, 0x13, 0xab, 0x8c, 0x3e,
  0x33, 0xe1, 0xda, 0x3c, 0xc0, 0xa5, 0xbb, 0xba, 0x0f, 0xd3, 0x72, 0xbe,
  0xb2, 0x22, 0xb2, 0xbe, 0x06, 0xaa, 0x5a, 0xbe, 0x11, 0x17, 0xc5, 0xbc,
  0x12, 0xfb, 0xc2, 0x3c, 0x5e, 0x9b, 0x1b, 0xbe, 0x94, 0x41, 0xd0, 0x3d,
  0x3d, 0x72, 0x9f, 0x3d, 0x2b, 0x11, 0x4e, 0xbe, 0x7e, 0xdb, 0x01, 0x3d,
  0x96, 0x99, 0x31, 0x3d, 0xe5, 0xca, 0x1f, 0xbe, 0x29, 0xa6, 0x2b, 0x3d,
  0x6b, 0xd3, 0xb2, 0xbd, 0x31, 0x6f, 0xe7, 0xbd, 0x03, 0x7f, 0xa4, 0x3d,
  0x56, 0x03, 0x06, 0xbe, 0xe9, 0xd9, 0xc7, 0xbc, 0xba, 0xdf, 0xff, 0xff,
  0x10, 0x00, 0x00, 0x00, 0x09, 0x00, 0x00, 0x00, 0x1c, 0x00, 0x00, 0x00,
  0x38, 0x00, 0x00, 0x00, 0x04, 0x00, 0x00, 0x00, 0x08, 0x00, 0x00, 0x00,
  0x04, 0x00, 0x00, 0x00, 0x03, 0x00, 0x00, 0x00, 0x01, 0x00, 0x00, 0x00,
  0x18, 0x00, 0x00, 0x00, 0x73, 0x65, 0x71, 0x75, 0x65, 0x6e, 0x74, 0x69,
  0x61, 0x6c, 0x2f, 0x63, 0x6f, 0x6e, 0x76, 0x32, 0x64, 0x2f, 0x43, 0x6f,
  0x6e, 0x76, 0x32, 0x44, 0x00, 0x00, 0x00, 0x00, 0x30, 0xdf, 0xff, 0xff,
  0x3a, 0xe0, 0xff, 0xff, 0x04, 0x00, 0x00, 0x00, 0x00, 0x01, 0x00, 0x00,
  0xf3, 0xbc, 0x41, 0x3e, 0x17, 0x33, 0x17, 0x3d, 0xe5, 0x83, 0x12, 0x3e,
  0xfe, 0x4f, 0xf1, 0xbc, 0x11, 0x1a, 0x2f, 0x3e, 0xae, 0x6c, 0x04, 0xbe,
  0x78, 0x56, 0x55, 0x3e, 0x3d, 0xdf, 0xff, 0x3e, 0x68, 0xdc, 0x9a, 0xbc,
  0xe7, 0x8c, 0x1a, 0x3e, 0x39, 0xa3, 0xe1, 0x3e, 0x7d, 0xca, 0x1c, 0xbe,
  0x3e, 0xbb, 0x43, 0x3e, 0x35, 0xdf, 0xed, 0xbe, 0x02, 0xbf, 0xe0, 0xbe,
  0xe9, 0xde, 0xa6, 0x3e, 0x1d, 0xe9, 0x87, 0x3c, 0xb2, 0x35, 0x61, 0x3c,
  0x92, 0x16, 0x22, 0x3e, 0x35, 0x95, 0x9b, 0xbd, 0xb4, 0xb5, 0x2d, 0x3e,
  0x73, 0x85, 0xcd, 0xbd, 0xdf, 0xa1, 0x70, 0x3e, 0x3e, 0x74, 0x05, 0xbf,
  0xdc, 0x7f, 0xb1, 0x3e, 0xa1, 0x7c, 0x5c, 0xbf, 0x10, 0xbb, 0xeb, 0x3e,
  0x41, 0xc5, 0x06, 0xbe, 0x5a, 0xd4, 0x8d, 0xbf, 0x5a, 0xb0, 0xbb, 0xbe,
  0x0d, 0x8a, 0xa2, 0x3d, 0xef, 0x46, 0xa7, 0x3e, 0x1f, 0xb8, 0x8c, 0xbe,
  0x4f, 0x94, 0x79, 0xbd, 0xa4, 0xf4, 0x69, 0x3e, 0xff, 0x68, 0x71, 0xbd,
  0xe8, 0x46, 0x86, 0x3e, 0x3e, 0xff, 0xf1, 0xbe, 0x55, 0x57, 0x74, 0x3e,
  0xb0, 0xba, 0x63, 0xbf, 0x4c, 0xe1, 0xb5, 0x3e, 0x3d, 0x3b, 0xa3, 0xbe,
  0xa7, 0x49, 0xd5, 0xbf, 0x61, 0x9a, 0x82, 0xbe, 0xe4, 0x22, 0x55, 0xbf,
  0x10, 0x6b, 0x94, 0xbe, 0xad, 0x7a, 0xa9, 0x3e, 0x79, 0x79, 0xc2, 0x3e,
  0x58, 0x50, 0x80, 0xbe, 0x81, 0x00, 0xcb, 0x3d, 0xaf, 0xca, 0x45, 0x3e,
  0x0f, 0xb1, 0x7c, 0xbd, 0x9b, 0xde, 0x2f, 0x3e, 0x29, 0x31, 0x27, 0xbe,
  0x87, 0x34, 0x98, 0x3e, 0x36, 0xab, 0xd3, 0xbe, 0x23, 0x36, 0xcd, 0x3e,
  0xd8, 0x24, 0x26, 0xbe, 0x16, 0x85, 0x08, 0x3f, 0x35, 0xbf, 0x3c, 0xbe,
  0xe5, 0x58, 0x03, 0xbf, 0xb6, 0x8b, 0x33, 0x3e, 0x59, 0x02, 0xd2, 0xbd,
  0x2f, 0xd1, 0xad, 0x3e, 0x12, 0xe1, 0xff, 0xff, 0x10, 0x00, 0x00, 0x00,
  0x08, 0x00, 0x00, 0x00, 0x14, 0x00, 0x00, 0x00, 0x30, 0x00, 0x00, 0x00,
  0x02, 0x00, 0x00, 0x00, 0x04, 0x00, 0x00, 0x00, 0x10, 0x00, 0x00, 0x00,
  0x19, 0x00, 0x00, 0x00, 0x73, 0x65, 0x71, 0x75, 0x65, 0x6e, 0x74, 0x69,
  0x61, 0x6c, 0x2f, 0x64, 0x65, 0x6e, 0x73, 0x65, 0x5f, 0x31, 0x2f, 0x4d,
  0x61, 0x74, 0x4d, 0x75, 0x6c, 0x00, 0x00, 0x00, 0x80, 0xe0, 0xff, 0xff,
  0x8a, 0xe1, 0xff, 0xff, 0x04, 0x00, 0x00, 0x00, 0x00, 0x1c, 0x00, 0x00,
  0xc7, 0xfa, 0xb5, 0xbe, 0xae, 0xe6, 0xb1, 0xbe, 0x3f, 0x61, 0x53, 0x3d,
  0x0c, 0xc3, 0xfd, 0x3d, 0x2b, 0x5a, 0xf1, 0xbc, 0x2b, 0x4c, 0x62, 0xbe,
  0x08, 0xf1, 0xc2, 0xbd, 0x6f, 0x81, 0x50, 0xbe, 0x1a, 0xa6, 0x1a, 0xbd,
  0x78, 0xbb, 0xa4, 0x3c, 0xf4, 0x25, 0x46, 0xbe, 0xe9, 0x80, 0x0f, 0xbe,
  0xfa, 0x23, 0x52, 0xbb, 0x07, 0xe8, 0x5b, 0xbd, 0x91, 0x1d, 0x13, 0x3d,
  0xd2, 0x51, 0x55, 0xbd, 0x6e, 0x77, 0x88, 0xbd, 0x3d, 0x94, 0x12, 0xbe,
  0x65, 0x70, 0x00, 0x3d, 0x0f, 0x16, 0x22, 0x3e, 0x36, 0x24, 0x1e, 0xbe,
  0x21, 0x2f, 0x9d, 0xbd, 0x65, 0x2c, 0x26, 0x3d, 0x64, 0x8c, 0xee, 0xbd,
  0xc5, 0x73, 0x49, 0xbe, 0x9c, 0xc0, 0xac, 0xbd, 0xbf, 0x56, 0xfb, 0x3d,
  0xd5, 0xfe, 0xd2, 0x3d, 0x9c, 0x65, 0xbf, 0xbd, 0x17, 0xc7, 0x85, 0xbe,
  0xbe, 0x11, 0x09, 0xbe, 0x6d, 0xf0, 0x6b, 0xbd, 0xba, 0x58, 0x7e, 0xbe,
  0xc4, 0xda, 0xb7, 0xbd, 0x15, 0xa3, 0x66, 0x3e, 0xd1, 0xc4, 0x7b, 0x3d,
  0x80, 0x93, 0x08, 0xbd, 0xbf, 0x27, 0x4c, 0xbe, 0xd1, 0x70, 0xd9, 0xbd,
  0x3e, 0xd9, 0x7e, 0x3d, 0xba, 0x65, 0x92, 0xbe, 0x1c, 0xdd, 0x2d, 0x3e,
  0xce, 0xd7, 0x8c, 0x3d, 0x1a, 0xfc, 0x01, 0xbe, 0x28, 0x1b, 0x63, 0xbe,
  0x59, 0x90, 0x80, 0xbe, 0x6c, 0xcb, 0xde, 0x3c, 0x5d, 0x10, 0x9e, 0x3d,
  0xd5, 0x59, 0xfa, 0xbd, 0x40, 0x7e, 0xc7, 0xbe, 0x01, 0x6e, 0xc9, 0xbd,
  0x9f, 0x38, 0x79, 0xbd, 0xcf, 0x42, 0x45, 0x3e, 0xd3, 0xa0, 0x3a, 0xbe,
  0xb0, 0x8e, 0x0a, 0xbe, 0xd0, 0xae, 0x5a, 0xbe, 0x76, 0xe7, 0xb2, 0xbd,
  0xe2, 0xaa, 0xfb, 0xbd, 0x77, 0xbc, 0x40, 0x3e, 0x5c, 0x00, 0x8d, 0xbe,
  0x75, 0xd9, 0x0f, 0xbe, 0x01, 0x23, 0x54, 0xbe, 0x5a, 0x1e, 0x73, 0xbe,
  0xff, 0xb2, 0x1f, 0xbe, 0x55, 0x6c, 0xcc, 0xbd, 0xe8, 0xfd, 0xc6, 0xbe,
  0x5c, 0x70, 0x57, 0xbd, 0x3a, 0x7d, 0xbe, 0xbd, 0xed, 0xb0, 0xc0, 0xbc,
  0x55, 0xfd, 0xf7, 0xbd, 0x34, 0x26, 0x37, 0xbe, 0x60, 0x1e, 0xde, 0x3d,
  0x64, 0x53, 0xa4, 0xbd, 0xf6, 0x39, 0x45, 0x3e, 0xf0, 0xea, 0x50, 0xbe,
  0x74, 0x0f, 0x49, 0xbe, 0x4a, 0xfe, 0x70, 0xbe, 0x8e, 0x05, 0x48, 0xbe,
  0x41, 0x46, 0xfb, 0x3d, 0xc5, 0x19, 0x3e, 0x3d, 0x76, 0xf4, 0x15, 0xbe,
  0x34, 0xce, 0x5f, 0xbe, 0x39, 0x3e, 0x41, 0xbd, 0xb3, 0x9a, 0x04, 0x3e,
  0x5e, 0x03, 0x57, 0xbd, 0x19, 0xc2, 0x8a, 0xbc, 0x3a, 0x49, 0x3c, 0xbe,
  0xcc, 0x5f, 0xb0, 0x3d, 0x4d, 0x7e, 0x4e, 0xbe, 0x75, 0x47, 0xb8, 0xbd,
  0x7c, 0x6b, 0xac, 0x3d, 0x86, 0x54, 0x24, 0xbc, 0x7b, 0x99, 0x96, 0xbd,
  0x9e, 0x26, 0xf7, 0xba, 0x1b, 0x9d, 0x3c, 0x3d, 0x8d, 0x7a, 0xf3, 0xbd,
  0x88, 0xb2, 0x74, 0xbd, 0xe9, 0x89, 0xb9, 0x3d, 0xaa, 0xcd, 0x8a, 0xbd,
  0xc6, 0xd6, 0xbd, 0x3d, 0x27, 0xa7, 0x34, 0x3e, 0xb6, 0x3d, 0x6b, 0x3d,
  0x5b, 0x2e, 0x4a, 0xbe, 0x1a, 0x0c, 0x3a, 0x3b, 0xb4, 0xe9, 0x88, 0xbd,
  0xbf, 0x57, 0x27, 0x3e, 0x90, 0xfb, 0xa5, 0xbd, 0x47, 0xdf, 0xda, 0xbd,
  0x33, 0xa6, 0x35, 0xbd, 0xad, 0x29, 0xa3, 0x3c, 0x94, 0x3b, 0x91, 0x3c,
  0x7e, 0x26, 0x65, 0xbe, 0x98, 0x02, 0xef, 0xbe, 0x96, 0x5f, 0xb6, 0x3b,
  0xd8, 0x67, 0x12, 0xbe, 0xdf, 0x81, 0xfe, 0xbd, 0xa6, 0xcc, 0xb0, 0xbc,
  0x70, 0xcd, 0x71, 0x3d, 0xde, 0xae, 0xf3, 0x3d, 0xe2, 0x0c, 0x3c, 0xbe,
  0x49, 0x14, 0x77, 0xbe, 0xf0, 0x8c, 0x0e, 0xbe, 0x8f, 0x8b, 0xf3, 0xbd,
  0xc0, 0xda, 0xf4, 0xbe, 0x07, 0x34, 0x7f, 0xbc, 0x58, 0x1a, 0x5b, 0xbe,
  0x6c, 0x10, 0x3f, 0xbe, 0x9b, 0xa4, 0xfb, 0xbd, 0x08, 0x09, 0x13, 0xbe,
  0xf8, 0x63, 0x66, 0x3d, 0xc3, 0xe6, 0x2d, 0xbe, 0x2c, 0xa5, 0x19, 0xbe,
  0xbf, 0x27, 0x29, 0x3e, 0x71, 0xf4, 0xcb, 0x3e, 0x2f, 0x4c, 0xa8, 0x3d,
  0xf2, 0x3f, 0x8b, 0xbe, 0x9f, 0xd1, 0xb9, 0xbe, 0xf5, 0xdc, 0x63, 0x3e,
  0xcc, 0xe0, 0x2b, 0xbd, 0x66, 0x88, 0xa3, 0x3c, 0x8a, 0xbe, 0xe9, 0x3c,
  0xda, 0x83, 0x1e, 0x3d, 0xcc, 0x02, 0xd5, 0xbe, 0x6e, 0x96, 0xa3, 0x38,
  0xb5, 0x54, 0x5c, 0xbe, 0x22, 0x06, 0xbb, 0x3b, 0xab, 0xd3, 0x81, 0xbe,
  0x7e, 0xc8, 0x41, 0xbe, 0x22, 0xd0, 0x84, 0xbe, 0x08, 0xdc, 0xf2, 0x3e,
  0xaa, 0x04, 0xf7, 0x3d, 0x11, 0xa8, 0x85, 0xbe, 0x7f, 0xdd, 0xbf, 0xbe,
  0xb3, 0xfa, 0x05, 0x3f, 0x49, 0x60, 0x70, 0x3d, 0x7e, 0xd1, 0x12, 0x3e,
  0x60, 0x6b, 0x0f, 0x3d, 0x50, 0xbf, 0x21, 0x3d, 0x78, 0xb3, 0xbf, 0xbe,
  0x1e, 0xd1, 0x93, 0x3e, 0x33, 0x13, 0x58, 0xbe, 0x6e, 0x56, 0x88, 0x3c,
  0x57, 0xf7, 0x61, 0xbe, 0xb1, 0x8f, 0x3b, 0xbe, 0x38, 0xa0, 0xe7, 0xbd,
  0xcb, 0x7a, 0x0a, 0x3f, 0x87, 0x47, 0xb9, 0x3d, 0x91, 0x63, 0xd7, 0xbe,
  0x7a, 0x19, 0x1c, 0xbe, 0x48, 0x4f, 0x47, 0x3f, 0x43, 0x3c, 0x9c, 0x3d,
  0x27, 0xd0, 0x79, 0x3e, 0x0a, 0xfb, 0xc3, 0x3c, 0x3b, 0x1f, 0x05, 0x3d,
  0x6f, 0x2a, 0xce, 0x3d, 0x1f, 0x6b, 0xf1, 0x3d, 0x93, 0x4b, 0x65, 0xbe,
  0x9d, 0x67, 0x20, 0x3d, 0x12, 0x83, 0xf3, 0xbd, 0xd0, 0x6e, 0xfa, 0xbd,
  0x4b, 0xdc, 0x50, 0x3e, 0xcc, 0xb8, 0x8f, 0x3e, 0x85, 0x3f, 0x15, 0x3e,
  0x55, 0xf2, 0x57, 0xbe, 0x3a, 0x84, 0xae, 0xbe, 0xb8, 0xcb, 0xa2, 0x3e,
  0x62, 0xb6, 0x06, 0xbd, 0xf0, 0x5c, 0xa9, 0xbd, 0xa2, 0xcf, 0x97, 0x3c,
  0x05, 0x4e, 0x02, 0x3d, 0x38, 0x6d, 0xce, 0xbe, 0x1c, 0x8e, 0xd7, 0x3b,
  0x44, 0x0b, 0xcf, 0xbe, 0x42, 0x1b, 0x9e, 0x3d, 0x63, 0x74, 0x8b, 0xbe,
  0x6e, 0x1c, 0x48, 0xbe, 0xf5, 0xe4, 0xe9, 0xbd, 0x82, 0xa1, 0x4d, 0x3e,
  0x8b, 0x7a, 0x03, 0x3e, 0x0a, 0xb7, 0x14, 0xbe, 0xbb, 0xf8, 0xc2, 0xbe,
  0x1b, 0xc1, 0xc2, 0x3d, 0xd6, 0x35, 0xf2, 0x3d, 0x66, 0x62, 0xaf, 0xbd,
  0x31, 0xf3, 0xa9, 0x3c, 0xc9, 0x8b, 0x7a, 0xbd, 0x93, 0xce, 0x98, 0xbe,
  0xb3, 0xbd, 0xb4, 0xbd, 0xbc, 0xff, 0x2e, 0xbf, 0x05, 0x97, 0xe7, 0x3d,
  0xb4, 0x3b, 0xd0, 0xbe, 0xcc, 0x7b, 0x98, 0x3d, 0xdd, 0xbf, 0x40, 0x3d,
  0xed, 0xae, 0xdf, 0x3e, 0xdf, 0x22, 0x36, 0x3e, 0xaa, 0xfc, 0x35, 0xbe,
  0x10, 0xd2, 0xdd, 0xbe, 0x0c, 0x1b, 0x1a, 0x3e, 0x96, 0xaf, 0x85, 0x3d,
  0x3c, 0x60, 0x98, 0xbe, 0x12, 0xb4, 0xd6, 0x3c, 0x74, 0xb6, 0xa1, 0x3d,
  0x3a, 0xa4, 0xc3, 0xbe, 0x1b, 0x18, 0xfd, 0xbc, 0xa9, 0x32, 0xa6, 0xbd,
  0x08, 0x6e, 0x0a, 0x3e, 0x9a, 0x2d, 0xf0, 0x3c, 0xa1, 0xf5, 0x85, 0x3c,
  0xcc, 0x69, 0x81, 0x3c, 0xaf, 0xb0, 0x22, 0xbe, 0x45, 0x9f, 0x9d, 0x3e,
  0xec, 0xf6, 0xf5, 0x3c, 0xbe, 0x9f, 0xdf, 0x3d, 0x81, 0xe4, 0xbe, 0xbd,
  0xd5, 0xec, 0x6c, 0x3d, 0xe3, 0xd7, 0x48, 0xbd, 0x98, 0xe9, 0x0e, 0xbe,
  0x84, 0xf5, 0xf8, 0xbc, 0x72, 0x85, 0x11, 0xbd, 0x45, 0xe3, 0x18, 0xbe,
  0x7c, 0xd9, 0xd2, 0xbd, 0x4c, 0x4a, 0x56, 0x3d, 0x00, 0x42, 0x54, 0x3e,
  0x13, 0x87, 0xaf, 0xbd, 0x0f, 0xaa, 0x63, 0xbe, 0x16, 0x7b, 0x8e, 0xbd,
  0x9a, 0x08, 0xa9, 0x3e, 0x4f, 0x64, 0x45, 0xbd, 0x22, 0x9c, 0x16, 0x3e,
  0x98, 0xda, 0x29, 0xbd, 0x9d, 0x57, 0x02, 0x3f, 0x62, 0x4f, 0x65, 0x3e,
  0xfe, 0x21, 0xdd, 0xbe, 0xdd, 0x95, 0x3f, 0x3e, 0x18, 0x87, 0xca, 0xbe,
  0x0c, 0x14, 0xf3, 0xbe, 0x28, 0x9e, 0xe9, 0xbd, 0xe5, 0x14, 0x32, 0xbd,
  0x8b, 0x48, 0x11, 0x3e, 0xfd, 0x0e, 0x68, 0xbb, 0xbf, 0x0d, 0xab, 0xbe,
  0x7d, 0x57, 0xcc, 0x3c, 0xaa, 0xf7, 0x62, 0x3e, 0xcb, 0x1b, 0x08, 0xbe,
  0x62, 0xd0, 0x7d, 0x3d, 0xc6, 0x56, 0xbd, 0x3d, 0xdf, 0x3d, 0x22, 0x3e,
  0x7e, 0x9b, 0xe5, 0x3d, 0x04, 0xeb, 0x4d, 0xbe, 0xc9, 0x30, 0x8d, 0x3e,
  0x15, 0x8b, 0xd9, 0xbe, 0x9f, 0xa9, 0x98, 0xbe, 0x67, 0x6f, 0x47, 0x3d,
  0x30, 0x8e, 0x91, 0xbd, 0x6b, 0x55, 0xed, 0x3d, 0x94, 0xdf, 0xa9, 0xbd,
  0xf6, 0xe6, 0xcf, 0xbd, 0xd7, 0xc3, 0x2a, 0xbd, 0x23, 0x31, 0x17, 0x3d,
  0x1d, 0xc8, 0xe4, 0xbd, 0xf1, 0x48, 0x5f, 0xbd, 0x5e, 0xb6, 0x05, 0x3e,
  0x46, 0x88, 0xe2, 0x3c, 0x00, 0x62, 0x93, 0xbd, 0x0d, 0x4e, 0x46, 0xbe,
  0x5a, 0x62, 0xb1, 0xbc, 0x89, 0xae, 0x97, 0x3e, 0x4b, 0x86, 0xb7, 0xbe,
  0x81, 0xa8, 0x96, 0xb9, 0xe3, 0x3c, 0x90, 0xbd, 0xef, 0x76, 0xf0, 0x3d,
  0x5a, 0xe3, 0xf5, 0xbe, 0x4a, 0x2b, 0x6b, 0xbe, 0xbb, 0xed, 0x4a, 0xbe,
  0xb9, 0xa4, 0x1a, 0xbd, 0xf2, 0xe0, 0x61, 0x3d, 0x42, 0x48, 0x6e, 0x3c,
  0xfb, 0x04, 0x9d, 0xbc, 0xed, 0x28, 0x87, 0x3d, 0x6f, 0xd8, 0x99, 0x3d,
  0x45, 0x80, 0x84, 0xbd, 0xb1, 0xfc, 0xb5, 0xbd, 0x13, 0x9b, 0xa8, 0x3e,
  0x8c, 0xcc, 0x2c, 0xbe, 0x46, 0xbe, 0x4f, 0xbc, 0xc5, 0xb6, 0x5c, 0xbe,
  0xb0, 0xcf, 0x98, 0x3c, 0xb1, 0x0b, 0x74, 0xbf, 0x32, 0x52, 0x22, 0xbf,
  0x56, 0x35, 0x90, 0xbd, 0x60, 0xf8, 0x72, 0xbc, 0xcf, 0xad, 0x80, 0x3d,
  0xf7, 0xe9, 0xb0, 0x3c, 0x25, 0xf2, 0x2d, 0xbd, 0xfd, 0x14, 0x8d, 0x3e,
  0xc9, 0x7c, 0xa5, 0x3c, 0x9e, 0xb6, 0x6d, 0xbe, 0x5b, 0xaa, 0x0c, 0xbe,
  0xca, 0xcd, 0x0c, 0x3e, 0x5b, 0x65, 0x82, 0xbe, 0xe3, 0xb4, 0x04, 0x3e,
  0xf7, 0x3d, 0x31, 0xbe, 0xd2, 0x33, 0x84, 0xbd, 0xd7, 0xe0, 0xd4, 0xbe,
  0x60, 0x50, 0x95, 0xbe, 0x7b, 0xcd, 0xab, 0xbd, 0xfd, 0x5f, 0x3a, 0xbe,
  0xc2, 0x74, 0xd8, 0x3d, 0x01, 0x58, 0xad, 0xbc, 0x27, 0xbf, 0xb8, 0x3c,
  0x4d, 0x02, 0x0f, 0xbe, 0xd6, 0xe6, 0x48, 0x3d, 0x4e, 0x89, 0x0e, 0xbe,
  0xb1, 0x31, 0x99, 0xbd, 0x65, 0xd2, 0x16, 0x3e, 0x26, 0xd7, 0xa0, 0xbd,
  0x2f, 0x95, 0xc9, 0x3d, 0x03, 0x21, 0xf9, 0xbd, 0x56, 0xb3, 0x97, 0xbd,
  0x5a, 0x7c, 0x58, 0xbf, 0x6b, 0x85, 0x27, 0xbd, 0x26, 0xc9, 0xbf, 0xbe,
  0x7b, 0xf7, 0x96, 0xbe, 0xee, 0xbb, 0x83, 0xbf, 0x9e, 0xab, 0x2c, 0xbe,
  0xef, 0xec, 0x31, 0xbf, 0x58, 0x4a, 0x51, 0x3d, 0xe0, 0x5f, 0xab, 0xbe,
  0xdb, 0x98, 0xe9, 0x3d, 0x11, 0x81, 0x9f, 0xba, 0x7f, 0x02, 0x72, 0x3e,
  0xbe, 0x4f, 0x90, 0x3d, 0xd1, 0x5e, 0x85, 0x3e, 0xc9, 0x62, 0x21, 0xbe,
  0xe3, 0x60, 0x39, 0x3e, 0x83, 0xd4, 0x23, 0xbf, 0x65, 0x17, 0x0b, 0x3e,
  0x5a, 0x1e, 0xa7, 0xbe, 0xdd, 0x76, 0x84, 0xbd, 0x8a, 0xfc, 0x0b, 0xbf,
  0x91, 0x3b, 0x94, 0xbe, 0xc4, 0x6d, 0xf1, 0xbe, 0xaa, 0x46, 0xa2, 0x3b,
  0x3c, 0x94, 0x93, 0xbd, 0xee, 0x75, 0xed, 0xbc, 0x2a, 0x2b, 0x2a, 0xbe,
  0x07, 0xd2, 0x6d, 0x3e, 0xfa, 0xfd, 0x56, 0x3c, 0x78, 0x82, 0x1c, 0x3f,
  0xbe, 0xc2, 0x23, 0xbd, 0x9f, 0x69, 0x9f, 0x3e, 0x26, 0xc5, 0x73, 0xbe,
  0x8b, 0xad, 0xdb, 0x3d, 0x90, 0x79, 0x62, 0xbe, 0x63, 0xd7, 0x2c, 0xbe,
  0xf5, 0x53, 0x17, 0xbe, 0x4a, 0xb6, 0x96, 0xbd, 0x07, 0x24, 0xcf, 0xbe,
  0x23, 0xbd, 0x58, 0xbe, 0x78, 0x31, 0xba, 0x3d, 0x57, 0xaa, 0xef, 0xbc,
  0xf9, 0x3c, 0x61, 0xbd, 0x3f, 0x19, 0xda, 0x3e, 0xbd, 0x1c, 0x88, 0xbd,
  0x44, 0x77, 0xc4, 0x3e, 0x22, 0x7e, 0x92, 0x3d, 0x82, 0x47, 0xa2, 0x3e,
  0x59, 0xbf, 0x81, 0xbe, 0xeb, 0x73, 0xec, 0x3d, 0xad, 0x64, 0xc4, 0xbe,
  0xfc, 0x4c, 0x10, 0xbe, 0xbd, 0xb5, 0x00, 0x3d, 0x31, 0x07, 0x04, 0xbd,
  0x94, 0xe6, 0xd5, 0xbe, 0x38, 0x0c, 0x0e, 0xbe, 0x96, 0xe9, 0xe0, 0x3d,
  0xc9, 0x1d, 0x4e, 0xbd, 0x2c, 0xaf, 0x30, 0x3e, 0x37, 0xe6, 0x7d, 0x3e,
  0xf8, 0x99, 0x15, 0xbd, 0x0f, 0xaf, 0x9f, 0xbc, 0xd2, 0x8e, 0xa7, 0xbc,
  0xfe, 0x5a, 0x4f, 0x3e, 0x9d, 0xa5, 0x71, 0x3e, 0x33, 0x40, 0x89, 0x3e,
  0xa2, 0x71, 0xbf, 0xbe, 0x4d, 0xa3, 0xf8, 0x3c, 0xfe, 0xb9, 0xa5, 0xbe,
  0xd9, 0xb0, 0xc4, 0xbc, 0x62, 0x7b, 0x23, 0xbf, 0x25, 0xb3, 0x38, 0xbe,
  0x89, 0x8b, 0x3b, 0xbe, 0x0b, 0x8b, 0xb8, 0xbb, 0x30, 0x48, 0xc6, 0x3d,
  0x77, 0xb4, 0x6b, 0x3e, 0xce, 0xaf, 0x88, 0x3d, 0x56, 0x78, 0x4a, 0x3e,
  0x52, 0x05, 0x5b, 0xbd, 0x99, 0x22, 0x8e, 0x3d, 0x8e, 0x87, 0x3c, 0x3e,
  0x23, 0x05, 0xca, 0x3d, 0xc1, 0x23, 0xe3, 0xbe, 0xad, 0xd4, 0x41, 0x3d,
  0x9c, 0x34, 0x5a, 0xbe, 0x19, 0x10, 0x82, 0xbe, 0x30, 0x6f, 0x81, 0xbf,
  0x5d, 0x8d, 0x8a, 0xbd, 0xfc, 0x10, 0xbd, 0xbe, 0x78, 0xc2, 0xea, 0x3b,
  0xf2, 0x8d, 0x23, 0x3d, 0xc5, 0x7f, 0xbc, 0x3e, 0x93, 0x24, 0xb9, 0x3d,
  0x32, 0x6d, 0x35, 0x3e, 0xe6, 0x10, 0x99, 0xbd, 0xf6, 0x6c, 0x05, 0x3e,
  0x58, 0x27, 0x58, 0xbe, 0x16, 0x98, 0x26, 0xbd, 0xc5, 0x0c, 0x9e, 0xbe,
  0x27, 0x4b, 0xec, 0xbd, 0xb1, 0x06, 0xd8, 0xbe, 0xe9, 0xec, 0xfd, 0xbd,
  0x7f, 0x90, 0xf5, 0xbe, 0x7c, 0x53, 0x83, 0x3c, 0x08, 0xc8, 0x87, 0xbe,
  0x0e, 0xef, 0x93, 0x3c, 0x6b, 0x64, 0xc9, 0xbc, 0x48, 0x1d, 0x92, 0x3e,
  0x13, 0x31, 0x01, 0xbd, 0x8d, 0xec, 0x7d, 0xbe, 0xd4, 0xc3, 0x12, 0xbe,
  0xa4, 0xd7, 0xf1, 0xbd, 0xdd, 0xfc, 0xb7, 0xbe, 0xf4, 0x8d, 0x69, 0xbe,
  0xa4, 0x37, 0x96, 0xbd, 0xa2, 0x00, 0xa6, 0x3e, 0x1c, 0x39, 0xd3, 0xbe,
  0xc8, 0x62, 0xae, 0x3d, 0x19, 0x2e, 0x1b, 0x3e, 0x2c, 0x21, 0xa8, 0x3e,
  0xbc, 0x11, 0x6c, 0x3c, 0xd0, 0xf8, 0x8d, 0xbd, 0xe6, 0xcc, 0xb3, 0xbc,
  0xb7, 0x6c, 0x6d, 0xbd, 0x9b, 0x0b, 0x51, 0xbe, 0xdf, 0xc5, 0x29, 0x3e,
  0x51, 0xea, 0x9f, 0xbe, 0xe2, 0xc8, 0x5e, 0x3e, 0xc2, 0x10, 0x03, 0xbf,
  0xb1, 0x05, 0x8d, 0xbe, 0x0c, 0x5a, 0x4d, 0xbe, 0x6f, 0x9e, 0xa9, 0x3d,
  0xb5, 0x0b, 0x1d, 0xbf, 0xb0, 0x58, 0x9d, 0x3d, 0xfd, 0x3b, 0x67, 0xbe,
  0xdf, 0xe1, 0xa5, 0x3e, 0xef, 0x0f, 0xf5, 0x3d, 0xac, 0xc3, 0x8c, 0xbe,
  0x52, 0x76, 0xa0, 0x3d, 0x51, 0xd0, 0x6f, 0xbe, 0xb6, 0x89, 0x05, 0xbf,
  0x81, 0x97, 0xc2, 0x3d, 0xd4, 0xcb, 0x3c, 0xbe, 0x0b, 0x88, 0xa3, 0x3d,
  0x3d, 0x00, 0x08, 0xbf, 0x1d, 0x3e, 0x0f, 0xbf, 0x3c, 0xb2, 0x9a, 0xbe,
  0x81, 0xed, 0x6b, 0x3d, 0x8b, 0x1a, 0x73, 0xbe, 0x32, 0x8a, 0x34, 0xbd,
  0x33, 0xf1, 0x2a, 0xbe, 0xc9, 0x80, 0xf1, 0x3e, 0x09, 0x67, 0xfa, 0xbc,
  0xc7, 0xee, 0x8c, 0xbd, 0xaa, 0x25, 0xd4, 0xbc, 0xc5, 0x59, 0x51, 0x3e,
  0x2c, 0x2a, 0x70, 0xbe, 0xa1, 0xfc, 0x03, 0xbd, 0xc7, 0xc4, 0x28, 0xbe,
  0x13, 0x8e, 0x5d, 0x3e, 0xde, 0xe9, 0x33, 0x3d, 0x4c, 0x8e, 0x3e, 0xbc,
  0x70, 0x88, 0xd7, 0xbd, 0xb9, 0x78, 0x15, 0xbd, 0x52, 0x3c, 0x09, 0xbe,
  0xcd, 0xd7, 0x1d, 0xbd, 0xca, 0x34, 0x9f, 0x3d, 0x4c, 0xb1, 0xf2, 0x3d,
  0x51, 0x28, 0x98, 0x3d, 0xd9, 0x4e, 0x46, 0xbe, 0xdb, 0xc1, 0x24, 0xbd,
  0xc4, 0x97, 0x64, 0xbc, 0xdf, 0x11, 0xa7, 0xbd, 0xcf, 0x8c, 0x8e, 0xbd,
  0xaf, 0x4c, 0x85, 0xbd, 0xc2, 0x35, 0x06, 0x3e, 0x62, 0x07, 0xce, 0x3c,
  0xa1, 0xf3, 0xeb, 0xbd, 0x29, 0x3d, 0xf9, 0x3d, 0xe2, 0x9c, 0x1a, 0xbe,
  0x43, 0xfe, 0x1f, 0x3e, 0x43, 0xcd, 0x3f, 0xbe, 0xfd, 0x1e, 0x28, 0xbe,
  0x36, 0x27, 0x97, 0xbe, 0xe8, 0x3d, 0xa1, 0xbe, 0x1b, 0x0f, 0xa2, 0xb8,
  0x25, 0xd3, 0x2c, 0xbe, 0xba, 0xcc, 0x8c, 0x3e, 0xe0, 0xb4, 0xd1, 0xbb,
  0x69, 0xf7, 0xb9, 0xbd, 0x34, 0xb5, 0x1d, 0x3e, 0xe6, 0xb2, 0x30, 0xbe,
  0xe8, 0x0f, 0x81, 0x3e, 0x7f, 0x76, 0x5f, 0x3e, 0x4d, 0x9d, 0x7a, 0xbd,
  0xaf, 0xb9, 0xc0, 0xbd, 0xbb, 0xe2, 0x8c, 0x3e, 0x8c, 0xac, 0xfa, 0xbd,
  0x3b, 0xf7, 0x4d, 0x3d, 0xa7, 0x88, 0x0e, 0xbf, 0x4f, 0x99, 0x7c, 0x3c,
  0x67, 0x93, 0x9b, 0xbc, 0x23, 0xef, 0xcf, 0xbd, 0xb9, 0x4c, 0x68, 0x3e,
  0x27, 0x25, 0x22, 0xbe, 0x08, 0x40, 0x4b, 0xbd, 0x98, 0x86, 0x55, 0x3e,
  0x86, 0x96, 0x00, 0xbe, 0xd3, 0x71, 0x16, 0x3e, 0x1f, 0xd9, 0xb4, 0x3d,
  0xe0, 0xa8, 0x69, 0x3d, 0xb6, 0x0c, 0x9c, 0x3d, 0x7e, 0x2f, 0x80, 0x3e,
  0xca, 0xdd, 0x3e, 0xbc, 0x5a, 0x7d, 0x44, 0xbd, 0x66, 0xb9, 0x20, 0x3c,
  0x36, 0x24, 0x49, 0x3e, 0xa4, 0x94, 0x88, 0xbe, 0xf4, 0x78, 0x36, 0xbd,
  0xbe, 0x83, 0xa9, 0x3e, 0xc3, 0xd4, 0x27, 0xbe, 0xc4, 0x55, 0xb9, 0x3c,
  0x48, 0x26, 0x71, 0xbd, 0x51, 0x9d, 0x08, 0xbe, 0x97, 0x57, 0xef, 0x3d,
  0xef, 0xc4, 0x6d, 0x3d, 0xac, 0x6a, 0xb6, 0xbe, 0x2b, 0xf3, 0xd8, 0x3d,
  0x5e, 0xb7, 0x01, 0xbd, 0x17, 0xec, 0x40, 0xbe, 0x92, 0x7f, 0x44, 0xbe,
  0xef, 0x22, 0x91, 0xbc, 0x46, 0x84, 0xc0, 0xbe, 0x1a, 0xa5, 0x46, 0xbe,
  0x88, 0x46, 0x7e, 0xbe, 0x4e, 0xa3, 0x54, 0x3d, 0xfb, 0x2b, 0x98, 0xbe,
  0xa9, 0x02, 0x0b, 0x3e, 0x71, 0x94, 0x11, 0xbd, 0x8a, 0x59, 0xa1, 0xbe,
  0x49, 0x1f, 0x8d, 0xbc, 0xb4, 0xd8, 0x8c, 0xbc, 0x6e, 0xce, 0x24, 0xbe,
  0x40, 0x9c, 0x38, 0xbe, 0x1a, 0x28, 0x01, 0x3c, 0x54, 0x73, 0xf6, 0xbd,
  0x5a, 0x40, 0xc3, 0xbd, 0x14, 0x91, 0x3a, 0xbe, 0x52, 0xb5, 0x83, 0x3d,
  0xaf, 0xd8, 0xa1, 0x3c, 0x89, 0x9f, 0xdf, 0xbe, 0x3f, 0x77, 0xa0, 0xbd,
  0x1f, 0x74, 0xc3, 0xbd, 0x70, 0xca, 0x82, 0xbe, 0x4d, 0x83, 0xd1, 0xbd,
  0xa9, 0x41, 0xa4, 0xbe, 0x96, 0x18, 0x75, 0xbe, 0x62, 0x97, 0xa7, 0xbc,
  0xbd, 0xb1, 0xba, 0xbd, 0x1f, 0xce, 0x0c, 0xbe, 0xcc, 0xce, 0xc4, 0x3d,
  0xb5, 0x49, 0x55, 0xbd, 0xc1, 0xa8, 0x6a, 0x3c, 0xc7, 0xad, 0x2f, 0x3d,
  0x1f, 0x71, 0xf2, 0x3d, 0x40, 0x4b, 0xb3, 0xbd, 0xb5, 0xab, 0x6a, 0xbe,
  0x13, 0x8b, 0x07, 0xbe, 0x89, 0xdf, 0x30, 0xbe, 0x15, 0x30, 0x96, 0xbe,
  0xb1, 0x7a, 0x59, 0x3c, 0x02, 0x83, 0x13, 0xbf, 0x23, 0xb0, 0x52, 0xbe,
  0x7e, 0x45, 0xef, 0x3b, 0xa3, 0x82, 0xdc, 0xbe, 0xd3, 0x35, 0xc6, 0xbe,
  0x4e, 0x96, 0x74, 0xbd, 0x4f, 0x99, 0x1c, 0xbf, 0x16, 0xbb, 0x21, 0xbe,
  0xee, 0xae, 0x76, 0xbe, 0x9f, 0xfe, 0xf4, 0xbe, 0x42, 0x39, 0x0c, 0xbe,
  0x98, 0x09, 0x8f, 0xbe, 0xcd, 0x1a, 0x8e, 0x3d, 0xeb, 0xf5, 0xad, 0xbe,
  0x9f, 0xb7, 0x32, 0x3d, 0xd0, 0x89, 0x92, 0xbd, 0xc8, 0xff, 0x46, 0xbd,
  0xfe, 0x7c, 0xca, 0xbd, 0xdf, 0xbe, 0x61, 0x3c, 0xbf, 0xf5, 0x50, 0x3e,
  0x91, 0xdc, 0x00, 0xbe, 0x67, 0x2d, 0x2e, 0x3e, 0x8f, 0x4e, 0x2e, 0x3e,
  0x43, 0x2e, 0x0e, 0x3e, 0x5d, 0x13, 0x2c, 0xbb, 0x5d, 0x0c, 0x8a, 0x3e,
  0x9d, 0xd6, 0xf6, 0x3b, 0xff, 0x40, 0xd8, 0xbe, 0x38, 0xaa, 0x9c, 0xbe,
  0x12, 0x2d, 0x12, 0xbe, 0x75, 0x71, 0xb3, 0xbb, 0xd8, 0x29, 0x1a, 0xbd,
  0x56, 0x83, 0x53, 0x3d, 0xdf, 0x76, 0x3d, 0xbe, 0x93, 0xe2, 0xd4, 0x3d,
  0xc8, 0xaf, 0x43, 0x3e, 0xe1, 0x8d, 0x8f, 0xbe, 0x55, 0x9a, 0xa5, 0x3c,
  0x5e, 0x4f, 0x93, 0x3d, 0x10, 0x45, 0xc9, 0x3e, 0xbc, 0x30, 0x98, 0xbc,
  0x89, 0x92, 0x91, 0x3e, 0x63, 0x46, 0x77, 0xba, 0x89, 0x54, 0xd9, 0x3d,
  0xa6, 0xc5, 0xc5, 0xbe, 0xc5, 0x83, 0xa6, 0xbd, 0x21, 0x82, 0x6e, 0xbd,
  0x2c, 0x04, 0x25, 0xbe, 0x4f, 0x07, 0xea, 0x3d, 0xf8, 0x90, 0xa7, 0xbe,
  0xcb, 0x9c, 0x49, 0x3d, 0x0b, 0xed, 0x00, 0xbd, 0x44, 0xac, 0x32, 0xbd,
  0xbd, 0xe3, 0x07, 0xbe, 0x2c, 0x70, 0x07, 0x3e, 0x0b, 0x08, 0x60, 0x3e,
  0x6b, 0x86, 0xe2, 0xbd, 0xf1, 0x6c, 0xc6, 0x3e, 0x9c, 0xa5, 0xae, 0x3d,
  0x46, 0x38, 0x9d, 0x3b, 0x2e, 0x84, 0x13, 0xbd, 0xdc, 0x8b, 0xc3, 0x3c,
  0xde, 0x76, 0x7e, 0xbf, 0x50, 0x71, 0xe8, 0x3b, 0x0c, 0x12, 0x2e, 0xbe,
  0xec, 0x10, 0x28, 0x3e, 0x52, 0x7a, 0xfe, 0x3e, 0x01, 0xec, 0x5d, 0xbd,
  0xe6, 0x0d, 0x23, 0x3c, 0x60, 0x90, 0x03, 0x3e, 0x8e, 0x9e, 0xbe, 0xbd,
  0xe9, 0x22, 0x5d, 0xbe, 0xe0, 0xa9, 0x93, 0xbe, 0x1c, 0xb3, 0xb5, 0xbe,
  0xbb, 0x79, 0x8f, 0x3c, 0xe0, 0x18, 0x4f, 0xbe, 0x5b, 0xc8, 0x40, 0xbe,
  0x78, 0x17, 0x66, 0xbe, 0xe4, 0xdd, 0x8b, 0xbf, 0x8f, 0x37, 0x7b, 0x3d,
  0x3c, 0x59, 0xe8, 0xbe, 0x32, 0x70, 0x68, 0x3e, 0x9a, 0x11, 0x07, 0x3f,
  0x57, 0x70, 0x9b, 0x3e, 0x83, 0xcc, 0x28, 0x3d, 0x26, 0x0d, 0xc1, 0x3d,
  0x5c, 0x9c, 0x93, 0x3c, 0x25, 0xb9, 0x73, 0x3e, 0x96, 0x28, 0x72, 0xbe,
  0x10, 0x70, 0x24, 0x3e, 0xb1, 0x47, 0xfb, 0x3c, 0xb7, 0x19, 0xf5, 0x3c,
  0x5d, 0xdf, 0x85, 0xbe, 0xe4, 0x04, 0xe1, 0x3c, 0x28, 0x45, 0x92, 0xbf,
  0xd1, 0x89, 0x09, 0x3d, 0x1c, 0xa7, 0xd5, 0xbe, 0x08, 0xa0, 0x26, 0x3e,
  0x74, 0x97, 0xba, 0x3e, 0x5d, 0x13, 0xdd, 0x3d, 0xa6, 0xac, 0x3e, 0x3d,
  0xf0, 0xa4, 0xa7, 0x3d, 0xc8, 0x3e, 0xbb, 0x3b, 0xa0, 0x0e, 0x1f, 0x3e,
  0x2a, 0x44, 0x02, 0xbe, 0x6b, 0x68, 0xcd, 0x3d, 0xc1, 0xf6, 0x40, 0x3d,
  0xeb, 0x96, 0x18, 0x3d, 0x98, 0xa0, 0x5e, 0xbe, 0x15, 0x5b, 0xbd, 0x3e,
  0x47, 0xa5, 0x0a, 0xbf, 0x8a, 0x95, 0x03, 0x3d, 0x44, 0x4e, 0xe6, 0xbe,
  0x3b, 0x32, 0xc8, 0x3d, 0x96, 0xfc, 0x7d, 0x3e, 0x4d, 0x2e, 0x60, 0x3e,
  0x98, 0xd3, 0xdc, 0x3d, 0x90, 0x41, 0xad, 0xbb, 0x61, 0x47, 0x04, 0x3d,
  0x62, 0xfe, 0x1d, 0xbe, 0x18, 0x10, 0xc0, 0xbd, 0x04, 0x11, 0x8f, 0xba,
  0x12, 0xde, 0xd3, 0x3c, 0xaa, 0x2a, 0xa2, 0xbc, 0xcd, 0xeb, 0x09, 0xbc,
  0xa4, 0xe4, 0x8f, 0x3e, 0x91, 0xb7, 0x19, 0xbf, 0xed, 0x5d, 0x62, 0x3c,
  0xb7, 0x49, 0xf1, 0xbe, 0x15, 0x78, 0x01, 0x3e, 0x00, 0x0d, 0x28, 0x3e,
  0x57, 0x2f, 0x8e, 0x3e, 0x88, 0x40, 0x04, 0x3e, 0xea, 0xc0, 0x3a, 0xbd,
  0x9e, 0x46, 0xf8, 0x3d, 0x98, 0xbd, 0xe9, 0xbd, 0x51, 0xdb, 0xe2, 0xbd,
  0xe7, 0xdc, 0x96, 0x3e, 0x0d, 0x91, 0xfe, 0x3c, 0x86, 0x82, 0x78, 0x3b,
  0x69, 0x82, 0x4b, 0xbe, 0x71, 0x03, 0xee, 0x3d, 0x48, 0x39, 0xb7, 0xbf,
  0x2f, 0x21, 0xd2, 0x3c, 0x52, 0x0d, 0x79, 0xbf, 0x9f, 0x75, 0x4a, 0x3e,
  0x0a, 0x14, 0xcf, 0x3e, 0x90, 0xd9, 0x83, 0x3d, 0x26, 0x29, 0x72, 0x3d,
  0x63, 0xc7, 0xc4, 0xbc, 0x49, 0xda, 0x08, 0xbd, 0x21, 0xee, 0x8e, 0xbe,
  0x20, 0xd3, 0xd0, 0xbe, 0x8d, 0x5f, 0x34, 0xbd, 0xd1, 0xdb, 0x42, 0x3d,
  0x91, 0x7c, 0x9a, 0x3d, 0x03, 0xa5, 0x06, 0xbf, 0xb6, 0x8e, 0x95, 0x3d,
  0x5b, 0x9e, 0x8f, 0xbf, 0x5b, 0x9e, 0xb4, 0x3c, 0xf3, 0xc7, 0x37, 0xbe,
  0x8f, 0xa2, 0xdd, 0x3c, 0x08, 0x9a, 0xbc, 0x3e, 0x6a, 0xc3, 0xdc, 0xbd,
  0xc5, 0x82, 0x3b, 0x3e, 0xb0, 0xe9, 0x21, 0xbb, 0x37, 0x8c, 0x57, 0x3d,
  0x6c, 0x36, 0x74, 0xbe, 0x3d, 0x43, 0x77, 0x3d, 0x72, 0x42, 0x22, 0xbd,
  0x0a, 0x68, 0x20, 0x3d, 0xb0, 0x03, 0x9a, 0x3d, 0x43, 0xd4, 0xbb, 0xbe,
  0x22, 0xb4, 0xa4, 0xbd, 0x58, 0x26, 0x11, 0x3e, 0xd4, 0x3d, 0xe1, 0xbd,
  0x44, 0x93, 0x76, 0xbe, 0x58, 0x19, 0xe7, 0x3e, 0x81, 0xcf, 0xb5, 0x3f,
  0xa8, 0x53, 0x9f, 0xbe, 0xba, 0x3b, 0x87, 0x3c, 0xc9, 0x85, 0x85, 0xbe,
  0x98, 0x41, 0x9f, 0xbe, 0xf3, 0x7c, 0x33, 0x3e, 0x14, 0x20, 0x0e, 0xbe,
  0xf6, 0xf6, 0x79, 0xbe, 0xe9, 0x5d, 0x9e, 0xbe, 0x5d, 0xcf, 0x41, 0xbe,
  0x68, 0xf0, 0x78, 0xbe, 0x59, 0x99, 0xce, 0xbd, 0xde, 0x94, 0x32, 0x3f,
  0x7d, 0x7b, 0x97, 0xbe, 0xac, 0x6e, 0x33, 0xbd, 0xe1, 0xda, 0x83, 0x3c,
  0x68, 0x38, 0x87, 0x3f, 0x78, 0xe2, 0x85, 0xbe, 0x79, 0x79, 0xdc, 0x3e,
  0x06, 0xa0, 0x7b, 0xbe, 0x0f, 0x6e, 0x90, 0xbe, 0x99, 0xeb, 0x7e, 0x3d,
  0xe8, 0xb0, 0x8f, 0xbe, 0xa6, 0x07, 0xb8, 0xbe, 0x78, 0x2d, 0x21, 0xbe,
  0xde, 0x4c, 0x02, 0x3e, 0x62, 0x77, 0xed, 0xbd, 0xa3, 0x44, 0xcd, 0xbe,
  0xb2, 0x39, 0xd1, 0x3e, 0x6c, 0xa1, 0x18, 0x3e, 0x0f, 0x4c, 0x15, 0xbd,
  0xe6, 0x8b, 0x55, 0x3e, 0xec, 0xba, 0x8b, 0x3f, 0x11, 0x1c, 0x96, 0xbe,
  0x79, 0x0e, 0xe4, 0xbd, 0x8b, 0x91, 0x70, 0xbd, 0x3d, 0x5d, 0x8a, 0xbe,
  0x53, 0x74, 0x29, 0x3e, 0xfe, 0x51, 0x07, 0xbd, 0xa1, 0x26, 0x6c, 0xbe,
  0x21, 0xbd, 0x54, 0x3c, 0x44, 0x11, 0x23, 0xbd, 0x66, 0x7d, 0xc3, 0x3d,
  0xc1, 0x8d, 0x89, 0xbd, 0x69, 0x68, 0x54, 0x3f, 0x08, 0x80, 0x27, 0xbe,
  0x2e, 0x07, 0x23, 0xbe, 0x66, 0xb1, 0x64, 0x3e, 0x76, 0xcb, 0x03, 0x3f,
  0xc6, 0xc4, 0xa3, 0xbe, 0x3b, 0xf5, 0x59, 0xbe, 0xc5, 0xbc, 0x0b, 0xbe,
  0xe9, 0x1c, 0x85, 0xbe, 0x07, 0x9f, 0x31, 0x3e, 0x6d, 0xc0, 0x8a, 0xbe,
  0x81, 0xb8, 0x12, 0xbe, 0x7b, 0x1b, 0x80, 0xbe, 0x6d, 0xa8, 0xa4, 0x3e,
  0xd4, 0xd9, 0x43, 0xbe, 0x8d, 0x29, 0x6c, 0xbe, 0x99, 0x3e, 0xb2, 0x3e,
  0xd6, 0x4d, 0x9f, 0xbe, 0xc3, 0x07, 0xa9, 0xbe, 0x6b, 0xef, 0xf0, 0x3d,
  0x35, 0x5f, 0x20, 0x3f, 0xe7, 0x63, 0xb3, 0xbc, 0x8c, 0x45, 0x5c, 0xbd,
  0x2b, 0x3d, 0x87, 0x3c, 0xd9, 0xc2, 0xd7, 0xbd, 0xa2, 0x55, 0xc8, 0x3e,
  0x34, 0x2f, 0xf0, 0xbd, 0x19, 0x0e, 0x7a, 0xbd, 0x07, 0x9a, 0x75, 0xbe,
  0xae, 0xd4, 0xd6, 0x3d, 0xed, 0x6f, 0xdf, 0x3c, 0xc6, 0x2f, 0xa3, 0xbe,
  0x24, 0xdb, 0x14, 0x3f, 0x70, 0x4e, 0x19, 0xbe, 0x15, 0xca, 0x56, 0xbe,
  0x69, 0x73, 0xda, 0x3d, 0x46, 0xdb, 0x33, 0x3f, 0x10, 0x3d, 0x65, 0xbe,
  0x34, 0x04, 0xa2, 0x3b, 0x3d, 0x44, 0xb2, 0xbd, 0x66, 0x29, 0xce, 0xbe,
  0xeb, 0x88, 0x7e, 0x3e, 0xee, 0xab, 0x88, 0xbe, 0x23, 0x4e, 0x90, 0xbe,
  0x00, 0x8b, 0xdf, 0xbc, 0xa0, 0x27, 0xba, 0x3d, 0x70, 0xe6, 0x5e, 0xbe,
  0x56, 0xc9, 0x62, 0xbe, 0xc5, 0x8b, 0x04, 0x3f, 0xf5, 0x4f, 0xfd, 0x3d,
  0x68, 0xb5, 0x25, 0xbe, 0x3e, 0xd2, 0x26, 0x3e, 0x2a, 0xdc, 0x23, 0x3f,
  0xca, 0xe8, 0xa7, 0xbe, 0xd1, 0xae, 0xeb, 0x3c, 0x42, 0xc3, 0xaf, 0x3c,
  0x74, 0x19, 0x90, 0xbe, 0x4d, 0x3d, 0xc6, 0x3e, 0x7d, 0xa4, 0xad, 0xbe,
  0x19, 0x93, 0x99, 0xbe, 0x10, 0x24, 0xbd, 0xbe, 0x6a, 0x63, 0x9e, 0xbe,
  0x3a, 0xab, 0x0e, 0xbe, 0x06, 0xf5, 0xb9, 0xbe, 0x32, 0x89, 0x97, 0xbe,
  0xc9, 0x6f, 0x45, 0x3d, 0x38, 0x8c, 0xe0, 0xbd, 0xc0, 0xf8, 0x07, 0x3e,
  0xa8, 0x80, 0xa3, 0x3e, 0xc6, 0x6d, 0x2e, 0x3e, 0x80, 0x5e, 0x90, 0xbb,
  0x1f, 0x34, 0xfe, 0x3d, 0xf3, 0x72, 0x12, 0xbd, 0x47, 0xb6, 0x34, 0x3b,
  0x82, 0xcd, 0x63, 0xbe, 0x5a, 0xd7, 0xf1, 0xbd, 0xe8, 0x09, 0x85, 0xbd,
  0xe1, 0x86, 0xc0, 0xbe, 0x41, 0x6f, 0x62, 0xbd, 0x6f, 0xcf, 0x2c, 0xbe,
  0xab, 0x29, 0x08, 0x3e, 0x33, 0xa5, 0x08, 0x3b, 0x34, 0x09, 0xad, 0xbe,
  0xc2, 0xe0, 0x06, 0x3e, 0x33, 0xba, 0xc9, 0x3e, 0xac, 0x3d, 0xc1, 0x3e,
  0x45, 0xca, 0xa0, 0x3b, 0x8d, 0x1a, 0x97, 0x3d, 0x65, 0x6e, 0x33, 0x3d,
  0xcf, 0xbd, 0xd2, 0x3e, 0x44, 0x04, 0x02, 0xbe, 0xd5, 0x2b, 0xbd, 0x3d,
  0x20, 0x06, 0xb8, 0x3b, 0x38, 0x09, 0xdc, 0xbd, 0xcb, 0x8a, 0x0d, 0xbe,
  0xc9, 0xe0, 0x89, 0xbd, 0x1b, 0x15, 0x48, 0xbd, 0xa2, 0x75, 0x17, 0x3b,
  0x03, 0x97, 0xa6, 0xbe, 0x32, 0x79, 0x4c, 0x3e, 0xf9, 0x85, 0x59, 0x3e,
  0xf2, 0xd8, 0x02, 0x3f, 0x19, 0x5b, 0xd0, 0x3d, 0x02, 0xfb, 0xbc, 0x3b,
  0xa5, 0xf9, 0xe2, 0x3d, 0x41, 0x9b, 0x2b, 0x3f, 0x77, 0x73, 0x42, 0xbe,
  0x50, 0x3e, 0x01, 0x3d, 0x34, 0xf7, 0x8e, 0xbe, 0x91, 0x19, 0xa9, 0x3c,
  0xae, 0x8e, 0xf8, 0xbe, 0xbe, 0xee, 0x56, 0x3e, 0x8d, 0x7d, 0x29, 0xbd,
  0x05, 0xb0, 0x8e, 0x3b, 0x5d, 0xcf, 0x61, 0xbe, 0xe9, 0xff, 0x0a, 0x3e,
  0x17, 0x62, 0xa5, 0x3d, 0xa3, 0xcd, 0xd9, 0x3e, 0x9d, 0x64, 0x64, 0x3d,
  0x6d, 0x7a, 0xf9, 0x3a, 0x4b, 0xde, 0x62, 0xbc, 0xb9, 0x33, 0x29, 0x3f,
  0x47, 0x30, 0x93, 0x3c, 0xf9, 0x60, 0xa6, 0xbd, 0x05, 0xe9, 0xae, 0xbe,
  0xa2, 0xda, 0x6a, 0xbd, 0xce, 0x3e, 0x46, 0xbe, 0x8e, 0xeb, 0x8c, 0x3e,
  0xda, 0x50, 0x65, 0x3d, 0xd8, 0x85, 0x22, 0x3d, 0x04, 0x0b, 0x88, 0xbe,
  0x3e, 0x63, 0x54, 0x3e, 0xe0, 0xc8, 0x7f, 0x3e, 0xc4, 0xd3, 0x5a, 0x3e,
  0x4d, 0x88, 0xbe, 0x3c, 0x3c, 0x37, 0x83, 0xbd, 0x06, 0x89, 0x98, 0x3c,
  0xb2, 0x4d, 0x90, 0x3e, 0xe4, 0xbc, 0xe1, 0xbd, 0xa2, 0x5a, 0x55, 0x3c,
  0x15, 0xb7, 0xb9, 0xbe, 0x4f, 0xbb, 0xd3, 0x3c, 0xa3, 0xfc, 0xd3, 0xbe,
  0x5d, 0xb6, 0x14, 0x3e, 0xfd, 0x87, 0x82, 0xbd, 0xe6, 0xff, 0x8a, 0x3d,
  0x18, 0x18, 0xe5, 0xbe, 0x15, 0x7f, 0xbc, 0x3e, 0xe3, 0x37, 0xb3, 0x3e,
  0xef, 0x74, 0x73, 0x3e, 0x4f, 0x2d, 0x59, 0x3d, 0xbb, 0x93, 0x86, 0xbd,
  0x67, 0x9a, 0x5d, 0xbd, 0xf2, 0xe1, 0x36, 0x3d, 0xc5, 0xfa, 0x92, 0xbe,
  0x4f, 0xfb, 0x0d, 0xbe, 0x85, 0x6c, 0xd4, 0xbe, 0xd8, 0x84, 0xbc, 0x3d,
  0xb9, 0x94, 0xf5, 0xbe, 0x40, 0x4d, 0x36, 0x3e, 0x98, 0x70, 0xce, 0xbe,
  0x1a, 0x9d, 0x0b, 0x3a, 0x5f, 0xe9, 0xa2, 0xbd, 0xc8, 0x3b, 0x86, 0x3e,
  0x41, 0xfd, 0x64, 0x3e, 0x22, 0x2d, 0x8d, 0x3e, 0xbe, 0x42, 0x53, 0x3e,
  0x5f, 0x8f, 0xaf, 0xbc, 0x74, 0x2e, 0x0d, 0xbb, 0x78, 0x44, 0x39, 0x3d,
  0xe6, 0x48, 0x92, 0xbd, 0x52, 0xe8, 0xc9, 0x3c, 0xbf, 0xcc, 0x8f, 0x3c,
  0x0b, 0x1b, 0x8b, 0x3c, 0xed, 0x70, 0x9b, 0xbe, 0x20, 0x74, 0xc8, 0xbd,
  0xe4, 0xbd, 0x19, 0x3c, 0xe0, 0xb7, 0xa7, 0xbe, 0xa3, 0x53, 0xd4, 0xbd,
  0xdf, 0xd7, 0xb3, 0x3e, 0xe7, 0xd1, 0x8e, 0x3f, 0x51, 0x49, 0x15, 0xbe,
  0x66, 0xf2, 0xd3, 0x3d, 0x98, 0xa9, 0x5e, 0xbd, 0xe8, 0x62, 0xab, 0xbe,
  0xa9, 0x0d, 0x31, 0x3d, 0x91, 0xba, 0x78, 0xbd, 0x11, 0x88, 0x87, 0xbe,
  0x1b, 0x13, 0xd4, 0x3d, 0x1b, 0xa7, 0x53, 0xbd, 0xf1, 0xe4, 0x78, 0x3e,
  0xae, 0xc4, 0xb1, 0xbd, 0x08, 0x8d, 0x1d, 0x3f, 0x29, 0x5c, 0x76, 0xbe,
  0xc4, 0xfe, 0x6b, 0xbe, 0x1e, 0xf4, 0x89, 0x3d, 0x9b, 0x1e, 0x39, 0x3f,
  0x33, 0xf5, 0xd0, 0xbd, 0x7c, 0xd4, 0x34, 0xbe, 0x67, 0x18, 0x4a, 0xbc,
  0x87, 0x10, 0x78, 0xbe, 0xd1, 0x2e, 0xad, 0xbd, 0xf7, 0x5a, 0x08, 0xbb,
  0xe4, 0x71, 0x9d, 0xbd, 0x0b, 0x9a, 0x9c, 0xbd, 0x44, 0x3b, 0x23, 0xbe,
  0x13, 0x92, 0xaa, 0x3e, 0x9f, 0xef, 0xea, 0xbd, 0x21, 0xd7, 0xc0, 0x3e,
  0xd0, 0xa7, 0x2d, 0xbe, 0xa4, 0x94, 0x3d, 0xbd, 0x4d, 0xca, 0x75, 0x3e,
  0x52, 0x09, 0x74, 0x3f, 0xb2, 0x01, 0xbd, 0xbe, 0x5c, 0x40, 0x21, 0xbc,
  0xce, 0x01, 0xeb, 0x3d, 0xdb, 0x07, 0x88, 0xbe, 0x23, 0xb1, 0x64, 0x3e,
  0x38, 0xbe, 0x80, 0xbe, 0x55, 0x6c, 0xa8, 0xbe, 0x0b, 0x94, 0xf8, 0xbd,
  0x8f, 0xec, 0x8c, 0x3d, 0x1e, 0xe7, 0xdb, 0xbd, 0xc8, 0x22, 0x5d, 0xbe,
  0x51, 0xc5, 0x58, 0x3e, 0xa2, 0x2d, 0xf2, 0xbd, 0x59, 0x48, 0xc0, 0xbb,
  0xa0, 0xbb, 0xd3, 0x3e, 0x28, 0xb6, 0x1c, 0x3f, 0xef, 0x01, 0xc5, 0xbe,
  0xef, 0x6c, 0x7d, 0xbe, 0x38, 0x92, 0x94, 0xbe, 0xfd, 0x80, 0x48, 0xbe,
  0x38, 0x3e, 0xd9, 0x3d, 0xb3, 0x2b, 0x0b, 0xbe, 0xa0, 0x98, 0x82, 0xbe,
  0xf9, 0x83, 0xc1, 0xbd, 0x9c, 0x3e, 0xd0, 0xbd, 0x59, 0x41, 0xd2, 0xbd,
  0xcb, 0x05, 0x47, 0xbd, 0xe3, 0x93, 0x25, 0x3e, 0xf3, 0xb7, 0x6c, 0xbe,
  0x2a, 0x31, 0x24, 0xbe, 0xce, 0x5a, 0x8e, 0x3e, 0xb0, 0x9a, 0x4a, 0x3f,
  0x3f, 0x83, 0x63, 0xbe, 0x24, 0x96, 0x09, 0xbe, 0xf6, 0x33, 0x73, 0xbc,
  0xaa, 0x75, 0x85, 0xbd, 0xce, 0x39, 0xe1, 0x3e, 0x8c, 0x43, 0x6a, 0xbe,
  0x1e, 0x0a, 0x3e, 0xbe, 0x13, 0x83, 0xae, 0x3d, 0xeb, 0x8c, 0x83, 0xbe,
  0x8c, 0x2f, 0x26, 0x3e, 0x8f, 0x64, 0x62, 0xbe, 0xbe, 0xd8, 0x87, 0x3c,
  0xdb, 0xda, 0x6b, 0xbd, 0xe8, 0xe6, 0x3c, 0xbd, 0x38, 0x8e, 0x43, 0x3e,
  0x55, 0x3b, 0x0c, 0x3f, 0xfc, 0x14, 0x34, 0xbe, 0x81, 0x47, 0x02, 0x3d,
  0x4c, 0x84, 0xce, 0xbd, 0xfc, 0xda, 0xe0, 0xbd, 0x52, 0x27, 0xe9, 0x3e,
  0xb0, 0xea, 0x77, 0xbe, 0x13, 0xa7, 0xdd, 0xbd, 0x9b, 0x2c, 0xc3, 0xbd,
  0xe0, 0xe1, 0xcd, 0xbd, 0xcb, 0xb7, 0x55, 0xbd, 0x0f, 0x24, 0xc9, 0xbd,
  0x30, 0x52, 0xf8, 0x3d, 0x38, 0x82, 0xf0, 0xbd, 0xf8, 0x68, 0x1b, 0xbe,
  0x9e, 0xc1, 0x0c, 0x3e, 0x78, 0xd1, 0x43, 0x3f, 0x00, 0xed, 0x9b, 0xbe,
  0x81, 0xb2, 0x5a, 0xbe, 0x50, 0x71, 0x9e, 0x3d, 0x70, 0x3d, 0xb4, 0xbe,
  0x7d, 0xa7, 0x8a, 0x3e, 0x66, 0x9c, 0x86, 0xbe, 0x2f, 0xca, 0xa5, 0xbe,
  0x30, 0x49, 0xe9, 0xbc, 0x82, 0x1a, 0x03, 0xbe, 0xbc, 0xbd, 0x87, 0xbe,
  0x02, 0x56, 0x3e, 0xbe, 0x91, 0x4c, 0x0b, 0x3e, 0x4b, 0xf2, 0xae, 0xbe,
  0x2e, 0xe0, 0x42, 0xbd, 0xd6, 0x12, 0x1a, 0xbd, 0xb8, 0x01, 0x5d, 0x3e,
  0x92, 0xcb, 0xa4, 0x3d, 0xe4, 0x7e, 0x42, 0xbe, 0x5e, 0x86, 0x8d, 0xbe,
  0x7f, 0x99, 0x10, 0xbe, 0xb9, 0x9c, 0xc1, 0x3e, 0x32, 0x44, 0x53, 0xbe,
  0xec, 0xa8, 0xcb, 0xbd, 0xba, 0x92, 0x89, 0xbe, 0x14, 0xb4, 0xae, 0xbd,
  0x1c, 0x59, 0xc5, 0xbd, 0x71, 0x3e, 0xdb, 0x3d, 0x3e, 0xf3, 0xa4, 0x3e,
  0x77, 0x92, 0xec, 0xbe, 0x9a, 0x48, 0x3e, 0xbd, 0x98, 0xf4, 0x44, 0xbe,
  0xff, 0xf2, 0x48, 0xbe, 0x3e, 0x68, 0x9e, 0x3e, 0xb0, 0x2c, 0x28, 0xbe,
  0xed, 0xfb, 0x24, 0xbd, 0xfc, 0x14, 0x3c, 0xbd, 0x10, 0x4a, 0x71, 0x3e,
  0x1e, 0xc2, 0x79, 0x3d, 0xc8, 0x64, 0xf3, 0xbc, 0x61, 0x66, 0x83, 0xbe,
  0x61, 0x63, 0x9b, 0xbe, 0x42, 0xde, 0xc6, 0xbe, 0x12, 0x15, 0xfa, 0x3c,
  0xfe, 0x55, 0xb3, 0x3e, 0x29, 0x6d, 0xc6, 0xbe, 0x71, 0x3e, 0x1c, 0xbe,
  0xc5, 0xa3, 0x0c, 0xbe, 0xd1, 0xd6, 0xad, 0xbd, 0x76, 0x25, 0xfd, 0x3e,
  0xf8, 0x0a, 0x13, 0xbe, 0x66, 0x9b, 0x89, 0xbe, 0x32, 0xf3, 0x0c, 0x3d,
  0xab, 0x06, 0xe0, 0x3e, 0x68, 0x9b, 0xce, 0x3d, 0x29, 0xaa, 0xdd, 0x3d,
  0x27, 0xe9, 0x22, 0xbe, 0x16, 0x4e, 0x4c, 0x3e, 0x4a, 0xc3, 0xc3, 0xbe,
  0xd4, 0x69, 0x98, 0x3e, 0xad, 0x6d, 0x08, 0x3f, 0x91, 0xd6, 0xf9, 0xbe,
  0x8b, 0xe1, 0x99, 0x3d, 0xb0, 0xd2, 0xd1, 0xbe, 0x1e, 0xed, 0x2d, 0x3e,
  0x17, 0x12, 0xdb, 0x3e, 0xc7, 0x35, 0x30, 0xbe, 0x88, 0x5f, 0xc4, 0xbe,
  0xcb, 0xdc, 0x1b, 0xbd, 0x5f, 0x33, 0x03, 0x3f, 0x34, 0x76, 0xd0, 0x3d,
  0x97, 0x64, 0x41, 0xbc, 0x91, 0x9f, 0x4e, 0xbe, 0x2b, 0x5e, 0x96, 0xbe,
  0xee, 0xce, 0xdd, 0x3d, 0x5e, 0x63, 0x4d, 0x3e, 0xb3, 0xaf, 0x88, 0x3e,
  0xe6, 0xf6, 0x0e, 0xbf, 0xf5, 0x47, 0xa8, 0x3d, 0x71, 0xfe, 0x1b, 0xbe,
  0xff, 0x93, 0x7c, 0xbe, 0xb3, 0x18, 0x60, 0x3e, 0x13, 0x6d, 0xe6, 0xbe,
  0xcc, 0x53, 0x8e, 0xbe, 0xd7, 0xc1, 0x74, 0xbc, 0xcc, 0x78, 0x46, 0x3e,
  0x7d, 0x5a, 0xc4, 0xbd, 0x97, 0x4c, 0xf6, 0xbd, 0x22, 0xd9, 0x9e, 0xbe,
  0xdf, 0x9f, 0xae, 0xbe, 0x64, 0xbe, 0x90, 0xbe, 0x1a, 0x2b, 0x46, 0x3e,
  0x17, 0xfb, 0x90, 0x3c, 0x4a, 0x4b, 0xf1, 0xbe, 0x60, 0x55, 0x42, 0xbe,
  0xf0, 0x24, 0x89, 0xbe, 0x89, 0x53, 0xc8, 0xbc, 0x02, 0xb9, 0x9d, 0x3e,
  0x09, 0x05, 0x40, 0xbe, 0x3c, 0x37, 0xd8, 0xbe, 0xfc, 0xcb, 0x41, 0xbe,
  0x04, 0x01, 0x11, 0x3e, 0x43, 0x3f, 0xdd, 0x3e, 0xce, 0x59, 0x13, 0xbe,
  0xf7, 0x8d, 0x02, 0xbf, 0xb5, 0x91, 0x2b, 0xbf, 0xa5, 0x88, 0xb2, 0xbe,
  0xf5, 0x57, 0x21, 0x3e, 0x75, 0xd6, 0xac, 0x3d, 0xa3, 0xaa, 0x25, 0x3e,
  0x3c, 0xcc, 0x53, 0xbd, 0x04, 0x00, 0xa7, 0xbe, 0xed, 0xd5, 0x2b, 0x3e,
  0x0a, 0xdd, 0xaa, 0x3e, 0x16, 0x3d, 0x15, 0xbf, 0x46, 0xb0, 0x88, 0x3c,
  0x3b, 0x77, 0x60, 0xbe, 0xad, 0xa5, 0x04, 0x3f, 0xba, 0xd7, 0x66, 0xbe,
  0x35, 0xe9, 0x62, 0xbe, 0xfa, 0x3b, 0x1c, 0xbf, 0x22, 0x8c, 0xd7, 0xbe,
  0xcc, 0x60, 0xad, 0xbe, 0x82, 0x0d, 0x6c, 0xbc, 0x73, 0x78, 0x86, 0xbc,
  0x8e, 0x80, 0x0e, 0x3b, 0xc8, 0x82, 0x0f, 0x3e, 0x6d, 0xf8, 0xf0, 0xbe,
  0xc8, 0x4f, 0x67, 0xbd, 0x13, 0x32, 0x61, 0x3e, 0x41, 0x60, 0xae, 0xbe,
  0x8e, 0xae, 0x0c, 0xbe, 0xe0, 0x68, 0xbc, 0x3d, 0xad, 0xaf, 0xaa, 0x3e,
  0xa9, 0x04, 0x92, 0xbe, 0x29, 0xfa, 0xb0, 0x3e, 0x8d, 0x51, 0x4e, 0xbe,
  0x08, 0x2a, 0xbe, 0x3d, 0xdc, 0x93, 0x6f, 0xbe, 0x13, 0xd3, 0x6f, 0xbd,
  0x25, 0x6d, 0xad, 0xbd, 0x27, 0x3c, 0x4e, 0x3d, 0xb5, 0x12, 0x6c, 0xbe,
  0x56, 0xbb, 0x20, 0x3e, 0xf4, 0xc9, 0x26, 0x3d, 0xfe, 0xca, 0x80, 0xbd,
  0xe6, 0x60, 0xb8, 0xbe, 0x51, 0x53, 0x5b, 0xbd, 0x3d, 0x5c, 0x72, 0xbd,
  0x79, 0x62, 0x07, 0x3f, 0x6f, 0x77, 0xa0, 0xbe, 0x9e, 0x54, 0x3c, 0xbc,
  0x05, 0x54, 0x2b, 0xbc, 0xce, 0x1a, 0x60, 0x3e, 0x65, 0x98, 0xb0, 0xbd,
  0x6e, 0x10, 0x49, 0xbb, 0xcb, 0x84, 0xab, 0xbf, 0xf5, 0x79, 0xa2, 0xbc,
  0xa9, 0x2c, 0x23, 0xbf, 0xae, 0x51, 0x9f, 0x3e, 0x5f, 0xb0, 0x2f, 0xbc,
  0xe6, 0x6a, 0x08, 0xbf, 0x1f, 0x02, 0xd9, 0xbd, 0xc1, 0x9e, 0xfa, 0xbc,
  0x97, 0x0d, 0xe4, 0xbd, 0x62, 0x8c, 0x31, 0xbf, 0x66, 0x89, 0xec, 0xbe,
  0xb8, 0x92, 0x39, 0xbe, 0xc4, 0x7c, 0xa5, 0x3d, 0xa4, 0xce, 0x01, 0xbe,
  0xd2, 0x53, 0x9a, 0xbd, 0x53, 0x85, 0x11, 0xbd, 0xca, 0x81, 0xab, 0xbf,
  0x4e, 0x29, 0xc2, 0xbc, 0x65, 0xcb, 0x72, 0xbf, 0xa2, 0x1c, 0x0b, 0x3d,
  0xe3, 0x40, 0x7e, 0x3d, 0xd5, 0x04, 0x05, 0xbf, 0xd2, 0x52, 0xd2, 0xbd,
  0x6a, 0xe8, 0x62, 0x3d, 0x59, 0x05, 0x23, 0xbe, 0x32, 0x9f, 0xf8, 0xbe,
  0x43, 0x35, 0xdc, 0xbe, 0x02, 0xa9, 0x66, 0xbe, 0x5c, 0x68, 0x0e, 0x3c,
  0x69, 0xef, 0x10, 0xbe, 0x7e, 0xa9, 0xd6, 0xbd, 0x57, 0xd3, 0xb4, 0xbe,
  0x08, 0xf4, 0x72, 0x3d, 0x71, 0xf2, 0x73, 0xbd, 0x54, 0x75, 0x41, 0xbd,
  0xd7, 0x49, 0x98, 0x3d, 0xcd, 0x9a, 0x3a, 0x3e, 0x16, 0x7c, 0x13, 0x3d,
  0xe5, 0x73, 0x38, 0xbe, 0x49, 0x0e, 0x04, 0x3c, 0x0a, 0x46, 0x3a, 0x3d,
  0xb3, 0x94, 0x81, 0xbe, 0xcf, 0x2a, 0x0e, 0xbe, 0xc7, 0x8a, 0x11, 0x3e,
  0x7e, 0xfb, 0xa0, 0xbc, 0x6d, 0x8e, 0x02, 0xbe, 0x67, 0xfc, 0x86, 0xbe,
  0x00, 0x76, 0x8f, 0xbe, 0xed, 0x14, 0xb9, 0xbd, 0x09, 0xbe, 0xa5, 0xbb,
  0x1b, 0x01, 0x75, 0xbd, 0xf2, 0x05, 0xe5, 0x3a, 0xde, 0xc5, 0x15, 0xbd,
  0x15, 0x0d, 0x9e, 0x3e, 0x2b, 0x15, 0x7d, 0xbe, 0x3e, 0x62, 0xe7, 0x3c,
  0xc0, 0xfa, 0x33, 0x3d, 0x78, 0x9f, 0x37, 0x3f, 0x48, 0x9d, 0x0b, 0xbe,
  0x09, 0xcf, 0xa7, 0x3e, 0x3c, 0x36, 0xe4, 0xbc, 0x5d, 0x87, 0x28, 0x3d,
  0xf2, 0x66, 0xa7, 0xbe, 0x06, 0xb1, 0x36, 0xbe, 0x83, 0x85, 0xcf, 0x3d,
  0x95, 0x8c, 0x30, 0xbd, 0x5b, 0x5e, 0x5a, 0x3d, 0x38, 0x73, 0x99, 0xbd,
  0x90, 0x75, 0xa7, 0x3d, 0x5c, 0x01, 0xd8, 0x3d, 0x94, 0x94, 0xde, 0xbd,
  0x81, 0x07, 0x05, 0x3d, 0x3b, 0x49, 0xa3, 0x3d, 0x1f, 0x0a, 0x5d, 0x3e,
  0xb8, 0xb6, 0x5e, 0x3a, 0x1c, 0x3a, 0x67, 0x3e, 0x6f, 0x48, 0x37, 0x3d,
  0x19, 0x69, 0x09, 0xbe, 0x28, 0x9d, 0x99, 0xbd, 0xd0, 0x7f, 0xe9, 0x3c,
  0x02, 0xbb, 0x9e, 0x3d, 0xf8, 0x4c, 0xaf, 0xbe, 0x23, 0xb4, 0xfe, 0xbd,
  0x2b, 0xc7, 0x11, 0x3e, 0x92, 0x1d, 0xeb, 0x3e, 0xba, 0xdd, 0xb7, 0xbe,
  0xec, 0x16, 0xe3, 0xbd, 0x35, 0xe2, 0x7f, 0xbd, 0x16, 0x9e, 0xd6, 0xbe,
  0x6e, 0x7f, 0xa7, 0x3e, 0xb6, 0x0c, 0x3e, 0xbe, 0x2e, 0x5e, 0xdc, 0xbe,
  0x0c, 0x5e, 0x60, 0xbe, 0xec, 0xd9, 0x30, 0xbe, 0xee, 0xc5, 0xfd, 0xbd,
  0xa7, 0xba, 0xa3, 0xbe, 0x20, 0x9f, 0x96, 0x3e, 0xd5, 0x53, 0x54, 0xbe,
  0x2a, 0xe3, 0x8d, 0xbd, 0x2d, 0x9f, 0x81, 0x3e, 0x70, 0xe2, 0x33, 0x3f,
  0xb9, 0x3d, 0xae, 0xbe, 0x79, 0x75, 0x5b, 0x3e, 0x01, 0x3d, 0xd6, 0x3c,
  0xe6, 0xc3, 0xab, 0xbe, 0xf2, 0x69, 0x01, 0x3e, 0x61, 0x2d, 0xa0, 0xbe,
  0x93, 0x99, 0x6a, 0xbd, 0x37, 0x65, 0x44, 0xbe, 0x77, 0xc5, 0x21, 0x3e,
  0x8a, 0xcc, 0x85, 0xbe, 0x38, 0xa1, 0xab, 0xbd, 0xd3, 0x0b, 0x3a, 0x3f,
  0xcd, 0x6e, 0x1a, 0xbe, 0xf1, 0x40, 0xab, 0xbe, 0x73, 0x9a, 0xe1, 0x3d,
  0xfa, 0xed, 0x77, 0x3f, 0x43, 0x55, 0x82, 0xbd, 0xdf, 0xa0, 0x27, 0x3e,
  0x75, 0x71, 0xb2, 0xbe, 0xbe, 0x7a, 0x60, 0xbe, 0x44, 0xf3, 0x1f, 0x3f,
  0xe4, 0xe5, 0x53, 0xbd, 0x91, 0x0e, 0xc0, 0xbd, 0x16, 0x20, 0x5a, 0x3e,
  0x77, 0xc4, 0xa0, 0x3c, 0xc8, 0x7b, 0x65, 0xbe, 0x83, 0xf8, 0x3b, 0xbe,
  0x92, 0x8e, 0x9c, 0x3e, 0xb4, 0x0f, 0x9a, 0xbe, 0x5a, 0xf7, 0x47, 0xbe,
  0xc6, 0xfb, 0x50, 0x3e, 0x42, 0x2b, 0x68, 0x3f, 0xc9, 0xbe, 0xb1, 0xbe,
  0x83, 0x8c, 0x5a, 0xbd, 0xf9, 0x50, 0x5c, 0xbd, 0x40, 0x88, 0xba, 0xbe,
  0x8a, 0xe4, 0x22, 0x3e, 0xee, 0x6b, 0xf3, 0xbd, 0xf5, 0x47, 0x04, 0xbe,
  0x96, 0x12, 0xf3, 0x3e, 0x7d, 0x49, 0x9f, 0x3e, 0xd4, 0x6f, 0xa0, 0xbd,
  0x33, 0xa4, 0xa0, 0xbe, 0x31, 0xf5, 0x83, 0x3e, 0xe8, 0x67, 0xbc, 0x3c,
  0x93, 0xfb, 0x01, 0xbe, 0xda, 0x99, 0x6e, 0x3e, 0x0c, 0x2d, 0x9d, 0x3f,
  0xe7, 0xd1, 0x7f, 0xbe, 0x4a, 0x3e, 0xce, 0xbd, 0xff, 0x54, 0x2e, 0xbe,
  0x6c, 0x16, 0x91, 0xbe, 0x88, 0x59, 0x01, 0x3f, 0x33, 0xd3, 0x3e, 0xbe,
  0x19, 0xe2, 0xdd, 0xbd, 0xcb, 0x0d, 0x60, 0xbe, 0xb3, 0x23, 0x6f, 0xbc,
  0x04, 0xcd, 0xaf, 0x3d, 0x96, 0xc4, 0xa4, 0xbe, 0xda, 0x91, 0xcf, 0xbd,
  0x87, 0x08, 0x44, 0xbe, 0xb9, 0x5d, 0xf3, 0xbd, 0xa1, 0x1b, 0xae, 0x3e,
  0x23, 0x7a, 0x97, 0x3f, 0x9b, 0x33, 0x65, 0xbe, 0xe7, 0xff, 0x7c, 0xbd,
  0x64, 0xd3, 0x5d, 0xbe, 0x30, 0x5a, 0xa4, 0xbe, 0x65, 0x48, 0x1d, 0x3f,
  0x1f, 0x4d, 0x6b, 0xbe, 0xb6, 0x1e, 0x98, 0xbe, 0x1a, 0xbf, 0x98, 0xbe,
  0x1f, 0xd0, 0x69, 0xbe, 0x51, 0x9b, 0xfb, 0xbd, 0xac, 0xd0, 0x8a, 0xbd,
  0x04, 0x33, 0x4f, 0x3e, 0xcd, 0x2f, 0x06, 0x3d, 0xf6, 0xf6, 0x92, 0xbe,
  0x20, 0x88, 0x91, 0x3e, 0x85, 0x71, 0x00, 0x3f, 0xf0, 0xdd, 0xb1, 0xbe,
  0x0b, 0x84, 0x40, 0xbe, 0x04, 0xa6, 0xaa, 0xbd, 0x16, 0xe4, 0x4d, 0xbe,
  0x4f, 0x0f, 0x84, 0x3d, 0xbf, 0xd8, 0xbe, 0xbe, 0x16, 0x5e, 0x81, 0xbe,
  0x28, 0xb4, 0x5d, 0xbe, 0x27, 0x84, 0xfd, 0xbd, 0xb5, 0x1e, 0x16, 0xbe,
  0xfe, 0x7a, 0x8e, 0xbe, 0xb4, 0x99, 0x88, 0xbe, 0x8d, 0xb5, 0xad, 0xbd,
  0xe9, 0x76, 0xb2, 0x3d, 0xdb, 0x78, 0x26, 0x3d, 0x9a, 0xc2, 0x02, 0x3e,
  0x85, 0xbe, 0xd0, 0xbd, 0x21, 0x6d, 0x8f, 0xbd, 0x70, 0x20, 0xd8, 0xbd,
  0xd1, 0x29, 0x29, 0xbd, 0x18, 0xcd, 0xe2, 0xbd, 0x14, 0x2f, 0x00, 0xbd,
  0x0c, 0x08, 0x6a, 0xbe, 0x05, 0xd2, 0x13, 0xbe, 0xa3, 0x0d, 0x54, 0xbd,
  0xc2, 0xaa, 0x44, 0xbd, 0x02, 0x58, 0x2a, 0x3d, 0x6c, 0x5c, 0x56, 0xbd,
  0x80, 0xfa, 0xa3, 0xbe, 0x47, 0x43, 0x16, 0x3d, 0xd7, 0x04, 0xab, 0x3d,
  0x80, 0x98, 0x23, 0xbe, 0xb9, 0x97, 0xa9, 0xbc, 0x58, 0xb6, 0x57, 0xbe,
  0x6c, 0xf7, 0x8b, 0x3d, 0x47, 0xcb, 0xab, 0x3c, 0x2f, 0x2e, 0x09, 0xbd,
  0xc1, 0x44, 0x87, 0x3d, 0x7d, 0xd8, 0x68, 0x3d, 0x7e, 0x90, 0x5d, 0xbd,
  0x70, 0x2b, 0x49, 0xbe, 0xaa, 0x86, 0x59, 0x3d, 0xe2, 0x6d, 0xfd, 0x3a,
  0x00, 0xd7, 0x53, 0xbe, 0xa1, 0x3f, 0xb5, 0xbe, 0xf0, 0xdd, 0x2a, 0xbe,
  0x25, 0x7b, 0xdd, 0x3d, 0x37, 0xdf, 0x8b, 0x3c, 0xe6, 0xe0, 0xef, 0x3a,
  0x1b, 0xe2, 0xed, 0xbd, 0x9a, 0x01, 0x3a, 0x3c, 0x86, 0x52, 0xa3, 0xbe,
  0x0b, 0xdc, 0x84, 0x3c, 0x0e, 0xb6, 0x4e, 0x3d, 0xbe, 0xee, 0x80, 0xbe,
  0x9c, 0x7a, 0xa4, 0xbc, 0xad, 0x04, 0x2c, 0xbe, 0xaf, 0xaf, 0x3e, 0xbd,
  0x4f, 0x6b, 0x4e, 0xbd, 0x82, 0x3b, 0x79, 0xbe, 0xc5, 0x5f, 0x92, 0xbd,
  0xab, 0x46, 0xec, 0x3c, 0x52, 0x12, 0x92, 0xbd, 0x0e, 0x97, 0x22, 0xbe,
  0x76, 0x27, 0x14, 0x3e, 0x12, 0x1f, 0xd2, 0xbd, 0x15, 0x88, 0xb8, 0xbc,
  0xeb, 0x06, 0x3e, 0xbc, 0xc0, 0xb5, 0x3c, 0x3e, 0xd8, 0xf2, 0xbd, 0xbd,
  0x52, 0x8f, 0x1e, 0x3d, 0x55, 0x74, 0x13, 0xbd, 0x97, 0xb9, 0xb8, 0x3d,
  0xa2, 0xb0, 0x32, 0x3e, 0x5d, 0x8e, 0xe0, 0x3c, 0x31, 0xa4, 0x8a, 0xbe,
  0xcd, 0xc5, 0x9e, 0xbe, 0x77, 0xc7, 0x45, 0x3d, 0x09, 0x94, 0x16, 0x3e,
  0xc9, 0x5c, 0xae, 0x3d, 0x50, 0xf6, 0x23, 0x3c, 0xbe, 0xd9, 0xf6, 0xbd,
  0xfa, 0x29, 0x91, 0xbd, 0x23, 0x92, 0x09, 0x3d, 0x81, 0x97, 0xf5, 0xbd,
  0x63, 0x72, 0x8e, 0x3b, 0x0e, 0x2e, 0x81, 0xbe, 0xbb, 0xa0, 0xf1, 0xbd,
  0x27, 0x9e, 0x1a, 0xbe, 0x21, 0x3f, 0x80, 0xbe, 0xa8, 0x3a, 0x03, 0x3d,
  0x36, 0x05, 0xf1, 0xbd, 0xe5, 0xc1, 0x95, 0xbd, 0xdc, 0x48, 0xbd, 0xbd,
  0x8d, 0xc2, 0x38, 0xbe, 0xe8, 0x67, 0x09, 0xbd, 0x13, 0x44, 0x61, 0xbe,
  0xca, 0x4d, 0x49, 0xbe, 0xa5, 0x2c, 0xc3, 0x3d, 0x75, 0x76, 0x8b, 0x3c,
  0xbe, 0xb6, 0x3b, 0x3e, 0xa9, 0x8e, 0xcd, 0x3d, 0x7e, 0xe4, 0x48, 0xbe,
  0xf9, 0xe1, 0x70, 0xbe, 0xcc, 0xe4, 0x09, 0x3e, 0x0b, 0xd1, 0x1a, 0x3e,
  0x82, 0xf9, 0x5d, 0xbe, 0x0e, 0xf2, 0x08, 0xbe, 0x68, 0x4a, 0x11, 0xbe,
  0x26, 0x65, 0x43, 0xbe, 0xe9, 0xdc, 0xbf, 0x3c, 0x92, 0xaa, 0x01, 0x3d,
  0x4c, 0xde, 0xc4, 0xbd, 0xe7, 0xe3, 0x88, 0x3d, 0x9c, 0x65, 0x6f, 0xbe,
  0x6c, 0xcb, 0x44, 0xbe, 0xfa, 0x43, 0x52, 0xba, 0x6a, 0xa9, 0x1c, 0x3e,
  0xd6, 0x3a, 0x85, 0xbe, 0x94, 0xe8, 0xdd, 0xbd, 0x5a, 0x0c, 0x8c, 0x3d,
  0x22, 0xe3, 0x05, 0x3d, 0x8a, 0x13, 0x08, 0xbe, 0x19, 0xba, 0x2b, 0xbd,
  0xe4, 0xa1, 0x14, 0xbe, 0x2e, 0x77, 0x47, 0xbe, 0x85, 0x73, 0xa4, 0x3d,
  0x1c, 0xa3, 0x9b, 0xbd, 0x52, 0x67, 0x92, 0x3d, 0x00, 0x94, 0x07, 0xbe,
  0xc3, 0xac, 0x53, 0xbe, 0x6b, 0x23, 0xd7, 0xbd, 0xb1, 0xc5, 0x31, 0x3d,
  0xa5, 0x01, 0xaf, 0xbd, 0x57, 0xfe, 0x8b, 0xbe, 0x56, 0xdb, 0x75, 0xbd,
  0x58, 0xbf, 0xab, 0xbd, 0x0f, 0xb9, 0x52, 0x3b, 0x2d, 0x0b, 0xbf, 0xbd,
  0xcd, 0x48, 0x30, 0xbe, 0x96, 0x07, 0x1a, 0xbe, 0xea, 0x60, 0x82, 0x3d,
  0xfc, 0x9d, 0x62, 0xbd, 0xb0, 0x77, 0x58, 0xbe, 0x2e, 0xca, 0xd8, 0xbd,
  0x68, 0x79, 0xda, 0x3c, 0xfb, 0x55, 0x3d, 0xbe, 0x4d, 0x87, 0x8a, 0x3d,
  0xd0, 0xf0, 0x2f, 0x3e, 0x58, 0x5f, 0xf3, 0xbd, 0x0f, 0x63, 0x62, 0xbe,
  0xb9, 0x19, 0x7a, 0xbd, 0xff, 0x6e, 0x51, 0xbe, 0x2b, 0xe1, 0x51, 0x3d,
  0xe8, 0xec, 0x72, 0xbd, 0x7f, 0x19, 0x89, 0x3d, 0xe8, 0xa7, 0x0d, 0xbe,
  0x5a, 0x01, 0x35, 0xbe, 0xf6, 0xe5, 0x40, 0x3e, 0xc3, 0xb2, 0x57, 0xbe,
  0x52, 0x77, 0xc5, 0xbd, 0x86, 0x37, 0xdc, 0xbc, 0x91, 0x98, 0x4b, 0x3c,
  0x55, 0x1f, 0x2f, 0xbe, 0x02, 0xca, 0xcb, 0x3d, 0xa3, 0xda, 0x8d, 0xbc,
  0x6c, 0x80, 0x97, 0xbe, 0x93, 0x0c, 0xaf, 0x3b, 0x09, 0xe9, 0x66, 0x3c,
  0x66, 0xee, 0x27, 0x3d, 0x15, 0xd7, 0xac, 0x3d, 0x14, 0xa1, 0x20, 0xbe,
  0xc8, 0xfa, 0x8c, 0xbd, 0x41, 0xc4, 0x2b, 0xbe, 0x99, 0xb0, 0xa9, 0xbd,
  0xf9, 0xb2, 0x6a, 0xbe, 0x2e, 0x3f, 0xe0, 0xbd, 0x40, 0x97, 0x0d, 0xbe,
  0xf9, 0x11, 0xfe, 0x3d, 0xb1, 0xd8, 0x94, 0xbe, 0x80, 0xd9, 0xa4, 0x3d,
  0x7f, 0x33, 0x28, 0x3e, 0x2d, 0xb6, 0x31, 0xbc, 0x2a, 0x4d, 0xe2, 0xbd,
  0xbe, 0x66, 0x56, 0x3d, 0x34, 0xc9, 0x13, 0x3d, 0x7d, 0x9e, 0x3b, 0xbe,
  0x6a, 0x16, 0x48, 0xbe, 0x20, 0xef, 0xe2, 0xbc, 0xdb, 0xee, 0x1b, 0xbe,
  0x7d, 0x80, 0x49, 0x3e, 0x41, 0xb0, 0xd2, 0xbd, 0x24, 0xc8, 0xc3, 0x3d,
  0xee, 0x01, 0x69, 0xbe, 0x3d, 0x51, 0xd0, 0x3d, 0xb5, 0xf3, 0x50, 0xbe,
  0x5e, 0xac, 0xd5, 0x3d, 0xd9, 0x30, 0x15, 0x3e, 0x37, 0x74, 0x4a, 0xbe,
  0x4e, 0x1b, 0xaa, 0xbc, 0x45, 0x2e, 0x8f, 0xbe, 0x67, 0xd4, 0xad, 0xbd,
  0xa4, 0x32, 0x7e, 0xbe, 0x6c, 0x58, 0xa1, 0xbd, 0x01, 0xfe, 0xfe, 0x3b,
  0xfc, 0x40, 0x01, 0xbe, 0x75, 0xe9, 0xe9, 0xbd, 0xfa, 0x79, 0x40, 0xbe,
  0xdc, 0x38, 0x63, 0xbe, 0x0c, 0xe0, 0x06, 0xbe, 0x47, 0x69, 0x71, 0xbe,
  0x76, 0x39, 0xcf, 0xbd, 0x79, 0xfc, 0x6d, 0x3d, 0xb6, 0x83, 0x0b, 0x3d,
  0x28, 0x98, 0x04, 0xbe, 0xd1, 0x6c, 0x55, 0xbe, 0xb0, 0x11, 0x0a, 0x3d,
  0xce, 0x1b, 0xb1, 0x3d, 0xac, 0x3c, 0x95, 0x3d, 0xa8, 0xbc, 0x4a, 0xbe,
  0xea, 0x0d, 0x20, 0xbe, 0xf6, 0xaf, 0x0a, 0x3e, 0xe0, 0x9d, 0x39, 0x3b,
  0xc9, 0xaf, 0x8e, 0xbd, 0x30, 0x0f, 0x92, 0xbd, 0x0c, 0x2b, 0x19, 0xbd,
  0xf1, 0x03, 0x27, 0xbe, 0xa4, 0x78, 0x93, 0xbe, 0x2a, 0xdd, 0x4d, 0xbe,
  0xe6, 0xcf, 0xd5, 0xbd, 0x34, 0x38, 0xf8, 0xbd, 0xdd, 0x9b, 0x52, 0xbd,
  0xa0, 0x1b, 0x87, 0xbd, 0x80, 0xea, 0x50, 0xbe, 0xdf, 0xc3, 0x29, 0xbe,
  0xc3, 0x16, 0xfc, 0xbd, 0x1a, 0xfc, 0x1d, 0xbc, 0x36, 0xd0, 0x90, 0xbd,
  0x1d, 0x5b, 0x7a, 0xbd, 0x3f, 0xe4, 0x88, 0x3e, 0x64, 0xe4, 0xf0, 0xbd,
  0x7a, 0x69, 0xd1, 0x3e, 0xbe, 0x2d, 0x22, 0xbe, 0x64, 0x92, 0xe8, 0x3d,
  0xe1, 0x43, 0xc6, 0x3c, 0xb1, 0xa7, 0x61, 0x3e, 0x7a, 0x28, 0xb8, 0xbd,
  0xca, 0x13, 0xef, 0xbd, 0x73, 0xfb, 0xe5, 0x3d, 0x40, 0xfa, 0xd5, 0xbd,
  0x86, 0x02, 0xbf, 0xbd, 0x52, 0x68, 0x85, 0x3b, 0xde, 0x0a, 0xc4, 0xbd,
  0x9a, 0x8b, 0x88, 0x3e, 0xcc, 0xb8, 0x31, 0xbe, 0x59, 0x9a, 0x27, 0xbe,
  0xfb, 0xd9, 0x4c, 0xbb, 0x57, 0xee, 0x9b, 0x3e, 0xad, 0xaf, 0xa0, 0xbe,
  0x21, 0x62, 0x1c, 0x3e, 0xaf, 0x0c, 0x63, 0xbe, 0x72, 0x41, 0x62, 0x3e,
  0xc7, 0x7b, 0x03, 0xbd, 0x2a, 0xfe, 0xf3, 0xbe, 0x63, 0x45, 0x03, 0x3e,
  0x56, 0xc7, 0x4e, 0xbe, 0xe9, 0x44, 0x00, 0xbf, 0xd4, 0xc8, 0xad, 0xbd,
  0xe5, 0xa9, 0x65, 0xbe, 0x86, 0x1a, 0xaa, 0x3d, 0x1b, 0x78, 0xce, 0xbe,
  0x53, 0x26, 0x81, 0xbe, 0x70, 0x4e, 0xae, 0x3d, 0x12, 0x4c, 0x6b, 0x3d,
  0x70, 0x89, 0xf8, 0xbd, 0xdf, 0x89, 0xc9, 0x3d, 0x36, 0x62, 0x74, 0x3d,
  0x7d, 0x3b, 0x44, 0x3e, 0xe5, 0x08, 0x81, 0x3b, 0x13, 0xbe, 0xa7, 0xbe,
  0x49, 0x6c, 0x26, 0x3e, 0x81, 0x30, 0x60, 0x3e, 0x0d, 0x85, 0x4e, 0xbe,
  0x20, 0x5a, 0xa4, 0x3a, 0x01, 0x95, 0x26, 0xbe, 0x8b, 0x30, 0x42, 0x3e,
  0x1f, 0xac, 0x12, 0xbf, 0xa5, 0xef, 0xd8, 0xbd, 0x52, 0xae, 0x7c, 0x3d,
  0xb1, 0x78, 0xd8, 0xbc, 0xbe, 0x76, 0xb1, 0xbd, 0xd3, 0x10, 0x21, 0x3d,
  0xe5, 0xd8, 0x75, 0x3e, 0x9f, 0xdc, 0xb5, 0x3e, 0x3c, 0x25, 0x2a, 0xbe,
  0x61, 0x5a, 0x5e, 0xbe, 0x76, 0x98, 0x9f, 0xbe, 0xa8, 0x59, 0x95, 0x3e,
  0x97, 0xf1, 0xb7, 0xbe, 0xb4, 0xeb, 0x88, 0x3d, 0x7d, 0x11, 0x64, 0xbe,
  0xc4, 0x83, 0xf3, 0x3d, 0x53, 0xc3, 0xa3, 0xbe, 0xd6, 0xb1, 0x81, 0xbe,
  0x9c, 0x84, 0x8e, 0xbd, 0xf6, 0x35, 0x1f, 0xbe, 0xf0, 0xa5, 0x13, 0x3e,
  0x7a, 0xef, 0x99, 0xbd, 0x4f, 0xe6, 0x6f, 0xbd, 0xf9, 0x09, 0xf1, 0x3e,
  0xe1, 0xe6, 0x23, 0xbe, 0x35, 0x23, 0x23, 0xbe, 0x3d, 0x3c, 0x48, 0xbe,
  0xa4, 0x7b, 0x6d, 0x3e, 0x7c, 0xf6, 0xba, 0xbe, 0xae, 0x06, 0x09, 0xbe,
  0x84, 0x9e, 0xaa, 0x3c, 0xb1, 0x11, 0xcf, 0x3d, 0x7c, 0xf2, 0x2a, 0x3e,
  0x42, 0x2a, 0x0f, 0xbe, 0x64, 0xe2, 0xdc, 0xbb, 0x38, 0xd2, 0x84, 0xbe,
  0x4d, 0x95, 0xb9, 0x3e, 0x04, 0xd6, 0x9f, 0xbd, 0xbf, 0xc7, 0x1d, 0xbd,
  0x61, 0xbe, 0xfc, 0xbb, 0x4a, 0x61, 0x92, 0x3d, 0x72, 0xc1, 0xeb, 0xbc,
  0x0a, 0x85, 0x0c, 0xbe, 0x77, 0x61, 0x3f, 0x3e, 0x05, 0x5b, 0x37, 0xbe,
  0x76, 0x4f, 0xe4, 0x3d, 0xac, 0x36, 0x54, 0x3e, 0x6f, 0x49, 0x1a, 0xbe,
  0x31, 0x57, 0x65, 0x3d, 0x41, 0x10, 0xa2, 0xbd, 0x27, 0x20, 0x46, 0xbe,
  0x49, 0xd9, 0x02, 0xbe, 0xe6, 0x02, 0x87, 0x3e, 0x3e, 0xaf, 0x9f, 0xbd,
  0x72, 0xe0, 0xc4, 0xbc, 0xcc, 0x4e, 0x04, 0xbe, 0x05, 0x46, 0x6f, 0x3e,
  0xd9, 0x32, 0x24, 0xbe, 0x1f, 0x55, 0x38, 0xbe, 0xbf, 0x5c, 0x97, 0x3e,
  0x2f, 0x60, 0x6b, 0xbd, 0x62, 0xfd, 0xff, 0xff, 0x10, 0x00, 0x00, 0x00,
  0x07, 0x00, 0x00, 0x00, 0x14, 0x00, 0x00, 0x00, 0x2c, 0x00, 0x00, 0x00,
  0x02, 0x00, 0x00, 0x00, 0x10, 0x00, 0x00, 0x00, 0x70, 0x00, 0x00, 0x00,
  0x17, 0x00, 0x00, 0x00, 0x73, 0x65, 0x71, 0x75, 0x65, 0x6e, 0x74, 0x69,
  0x61, 0x6c, 0x2f, 0x64, 0x65, 0x6e, 0x73, 0x65, 0x2f, 0x4d, 0x61, 0x74,
  0x4d, 0x75, 0x6c, 0x00, 0xcc, 0xfc, 0xff, 0xff, 0xd6, 0xfd, 0xff, 0xff,
  0x04, 0x00, 0x00, 0x00, 0x08, 0x00, 0x00, 0x00, 0xff, 0xff, 0xff, 0xff,
  0x70, 0x00, 0x00, 0x00, 0x00, 0x00, 0x0e, 0x00, 0x18, 0x00, 0x08, 0x00,
  0x07, 0x00, 0x0c, 0x00, 0x10, 0x00, 0x14, 0x00, 0x0e, 0x00, 0x00, 0x00,
  0x00, 0x00, 0x00, 0x02, 0x10, 0x00, 0x00, 0x00, 0x06, 0x00, 0x00, 0x00,
  0x10, 0x00, 0x00, 0x00, 0x2c, 0x00, 0x00, 0x00, 0x01, 0x00, 0x00, 0x00,
  0x02, 0x00, 0x00, 0x00, 0x18, 0x00, 0x00, 0x00, 0x73, 0x65, 0x71, 0x75,
  0x65, 0x6e, 0x74, 0x69, 0x61, 0x6c, 0x2f, 0x66, 0x6c, 0x61, 0x74, 0x74,
  0x65, 0x6e, 0x2f, 0x43, 0x6f, 0x6e, 0x73, 0x74, 0x00, 0x00, 0x00, 0x00,
  0x34, 0xfd, 0xff, 0xff, 0x3e, 0xfe, 0xff, 0xff, 0x04, 0x00, 0x00, 0x00,
  0x10, 0x00, 0x00, 0x00, 0xa5, 0xea, 0x49, 0x3f, 0x09, 0x71, 0x47, 0x3e,
  0x7f, 0xc6, 0xd9, 0xbf, 0xc0, 0xad, 0x9a, 0xbe, 0x26, 0xfe, 0xff, 0xff,
  0x10, 0x00, 0x00, 0x00, 0x05, 0x00, 0x00, 0x00, 0x10, 0x00, 0x00, 0x00,
  0x44, 0x00, 0x00, 0x00, 0x01, 0x00, 0x00, 0x00, 0x04, 0x00, 0x00, 0x00,
  0x32, 0x00, 0x00, 0x00, 0x73, 0x65, 0x71, 0x75, 0x65, 0x6e, 0x74, 0x69,
  0x61, 0x6c, 0x2f, 0x64, 0x65, 0x6e, 0x73, 0x65, 0x5f, 0x31, 0x2f, 0x42,
  0x69, 0x61, 0x73, 0x41, 0x64, 0x64, 0x2f, 0x52, 0x65, 0x61, 0x64, 0x56,
  0x61, 0x72, 0x69, 0x61, 0x62, 0x6c, 0x65, 0x4f, 0x70, 0x2f, 0x72, 0x65,
  0x73, 0x6f, 0x75, 0x72, 0x63, 0x65, 0x00, 0x00, 0xa8, 0xfd, 0xff, 0xff,
  0xb2, 0xfe, 0xff, 0xff, 0x04, 0x00, 0x00, 0x00, 0x40, 0x00, 0x00, 0x00,
  0x06, 0xeb, 0x9b, 0xbe, 0xeb, 0xe1, 0x5c, 0x40, 0xcb, 0xbe, 0xda, 0x3e,
  0x28, 0xd7, 0xcd, 0xbf, 0xc5, 0xcf, 0x1e, 0x3e, 0xc4, 0x11, 0xb4, 0x3d,
  0x3d, 0x78, 0x74, 0x40, 0x27, 0x61, 0xe1, 0x3f, 0xc8, 0x46, 0x51, 0xbe,
  0x04, 0x6c, 0x24, 0x40, 0xb6, 0x02, 0x70, 0xbf, 0xd9, 0xb8, 0x87, 0xbf,
  0x32, 0xa2, 0x24, 0x40, 0x26, 0x98, 0x8a, 0xbd, 0x13, 0x69, 0xb0, 0xbe,
  0xd8, 0xcd, 0x2e, 0x3e, 0xca, 0xfe, 0xff, 0xff, 0x10, 0x00, 0x00, 0x00,
  0x04, 0x00, 0x00, 0x00, 0x10, 0x00, 0x00, 0x00, 0x44, 0x00, 0x00, 0x00,
  0x01, 0x00, 0x00, 0x00, 0x10, 0x00, 0x00, 0x00, 0x30, 0x00, 0x00, 0x00,
  0x73, 0x65, 0x71, 0x75, 0x65, 0x6e, 0x74, 0x69, 0x61, 0x6c, 0x2f, 0x64,
  0x65, 0x6e, 0x73, 0x65, 0x2f, 0x42, 0x69, 0x61, 0x73, 0x41, 0x64, 0x64,
  0x2f, 0x52, 0x65, 0x61, 0x64, 0x56, 0x61, 0x72, 0x69, 0x61, 0x62, 0x6c,
  0x65, 0x4f, 0x70, 0x2f, 0x72, 0x65, 0x73, 0x6f, 0x75, 0x72, 0x63, 0x65,
  0x00, 0x00, 0x00, 0x00, 0x4c, 0xfe, 0xff, 0xff, 0x56, 0xff, 0xff, 0xff,
  0x04, 0x00, 0x00, 0x00, 0x40, 0x00, 0x00, 0x00, 0xea, 0xde, 0x38, 0x3f,
  0x57, 0x8d, 0x6d, 0x3f, 0x7d, 0x46, 0x65, 0xbf, 0xb1, 0xf4, 0x34, 0x3f,
  0x56, 0x37, 0xb0, 0x3e, 0xac, 0xf2, 0x79, 0xbe, 0x4b, 0x8d, 0x4e, 0x3f,
  0x19, 0xba, 0xd6, 0xbe, 0xc8, 0x11, 0x22, 0xbf, 0xf8, 0xe3, 0xa5, 0x3d,
  0xa5, 0x15, 0x15, 0x3d, 0x15, 0x75, 0xb2, 0xbf, 0xbd, 0x9e, 0x4d, 0x3e,
  0x16, 0xe1, 0x2f, 0x3f, 0x66, 0x97, 0xcf, 0xbf, 0x66, 0xb4, 0x04, 0xbf,
  0x6e, 0xff, 0xff, 0xff, 0x10, 0x00, 0x00, 0x00, 0x03, 0x00, 0x00, 0x00,
  0x10, 0x00, 0x00, 0x00, 0x48, 0x00, 0x00, 0x00, 0x01, 0x00, 0x00, 0x00,
  0x10, 0x00, 0x00, 0x00, 0x33, 0x00, 0x00, 0x00, 0x73, 0x65, 0x71, 0x75,
  0x65, 0x6e, 0x74, 0x69, 0x61, 0x6c, 0x2f, 0x63, 0x6f, 0x6e, 0x76, 0x32,
  0x64, 0x5f, 0x31, 0x2f, 0x42, 0x69, 0x61, 0x73, 0x41, 0x64, 0x64, 0x2f,
  0x52, 0x65, 0x61, 0x64, 0x56, 0x61, 0x72, 0x69, 0x61, 0x62, 0x6c, 0x65,
  0x4f, 0x70, 0x2f, 0x72, 0x65, 0x73, 0x6f, 0x75, 0x72, 0x63, 0x65, 0x00,
  0x04, 0x00, 0x06, 0x00, 0x04, 0x00, 0x00, 0x00, 0x00, 0x00, 0x06, 0x00,
  0x08, 0x00, 0x04, 0x00, 0x06, 0x00, 0x00, 0x00, 0x04, 0x00, 0x00, 0x00,
  0x20, 0x00, 0x00, 0x00, 0x00, 0x60, 0xff, 0xbf, 0xb9, 0xb1, 0x8f, 0xbf,
  0x3a, 0x02, 0x77, 0xbe, 0xd6, 0x77, 0xb5, 0xbd, 0x9d, 0x6f, 0xc8, 0xbf,
  0x9f, 0x89, 0xb3, 0xbf, 0xe6, 0xee, 0x2f, 0xbf, 0x75, 0x38, 0xeb, 0xbf,
  0x00, 0x00, 0x0e, 0x00, 0x14, 0x00, 0x04, 0x00, 0x00, 0x00, 0x08, 0x00,
  0x0c, 0x00, 0x10, 0x00, 0x0e, 0x00, 0x00, 0x00, 0x10, 0x00, 0x00, 0x00,
  0x02, 0x00, 0x00, 0x00, 0x10, 0x00, 0x00, 0x00, 0x44, 0x00, 0x00, 0x00,
  0x01, 0x00, 0x00, 0x00, 0x08, 0x00, 0x00, 0x00, 0x31, 0x00, 0x00, 0x00,
  0x73, 0x65, 0x71, 0x75, 0x65, 0x6e, 0x74, 0x69, 0x61, 0x6c, 0x2f, 0x63,
  0x6f, 0x6e, 0x76, 0x32, 0x64, 0x2f, 0x42, 0x69, 0x61, 0x73, 0x41, 0x64,
  0x64, 0x2f, 0x52, 0x65, 0x61, 0x64, 0x56, 0x61, 0x72, 0x69, 0x61, 0x62,
  0x6c, 0x65, 0x4f, 0x70, 0x2f, 0x72, 0x65, 0x73, 0x6f, 0x75, 0x72, 0x63,
  0x65, 0x00, 0x00, 0x00, 0x90, 0xff, 0xff, 0xff, 0x14, 0x00, 0x18, 0x00,
  0x04, 0x00, 0x00, 0x00, 0x08, 0x00, 0x0c, 0x00, 0x10, 0x00, 0x00, 0x00,
  0x00, 0x00, 0x14, 0x00, 0x14, 0x00, 0x00, 0x00, 0x14, 0x00, 0x00, 0x00,
  0x01, 0x00, 0x00, 0x00, 0x20, 0x00, 0x00, 0x00, 0x44, 0x00, 0x00, 0x00,
  0x2c, 0x00, 0x00, 0x00, 0x04, 0x00, 0x00, 0x00, 0x01, 0x00, 0x00, 0x00,
  0x40, 0x00, 0x00, 0x00, 0x03, 0x00, 0x00, 0x00, 0x01, 0x00, 0x00, 0x00,
  0x0c, 0x00, 0x00, 0x00, 0x63, 0x6f, 0x6e, 0x76, 0x32, 0x64, 0x5f, 0x69,
  0x6e, 0x70, 0x75, 0x74, 0x00, 0x00, 0x00, 0x00, 0x04, 0x00, 0x00, 0x00,
  0xff, 0xff, 0xff, 0xff, 0x40, 0x00, 0x00, 0x00, 0x03, 0x00, 0x00, 0x00,
  0x01, 0x00, 0x00, 0x00, 0xfc, 0xff, 0xff, 0xff, 0x04, 0x00, 0x04, 0x00,
  0x04, 0x00, 0x00, 0x00
};

unsigned int model_tflite_len = 13120;// Fill the int in `src/model.cc` here