#include "magic_wand_model_data.h"

// We need to keep the data array aligned on some architectures.
#ifdef __has_attribute
#define HAVE_ATTRIBUTE(x) __has_attribute(x)
#else
#define HAVE_ATTRIBUTE(x) 0
#endif
#if HAVE_ATTRIBUTE(aligned) || (defined(__GNUC__) && !defined(__clang__))
#define DATA_ALIGN_ATTRIBUTE __attribute__((aligned(4)))
#else
#define DATA_ALIGN_ATTRIBUTE
#endif

const unsigned char g_magic_wand_model_data[] DATA_ALIGN_ATTRIBUTE = {
  // Paste the data of the char array in `src/model.cc` here
  0x1c, 0x00, 0x00, 0x00, 0x54, 0x46, 0x4c, 0x33, 0x14, 0x00, 0x20, 0x00,
  0x04, 0x00, 0x08, 0x00, 0x0c, 0x00, 0x10, 0x00, 0x14, 0x00, 0x00, 0x00,
  0x18, 0x00, 0x1c, 0x00, 0x14, 0x00, 0x00, 0x00, 0x03, 0x00, 0x00, 0x00,
  0x18, 0x00, 0x00, 0x00, 0x2c, 0x00, 0x00, 0x00, 0xd8, 0x00, 0x00, 0x00,
  0x2c, 0x00, 0x00, 0x00, 0x80, 0x00, 0x00, 0x00, 0x78, 0x00, 0x00, 0x00,
  0x05, 0x00, 0x00, 0x00, 0x28, 0x07, 0x00, 0x00, 0x44, 0x06, 0x00, 0x00,
  0xbc, 0x03, 0x00, 0x00, 0xf8, 0x02, 0x00, 0x00, 0xac, 0x01, 0x00, 0x00,
  0x01, 0x00, 0x00, 0x00, 0xd0, 0x00, 0x00, 0x00, 0x14, 0x00, 0x00, 0x00,
  0x98, 0x32, 0x00, 0x00, 0x94, 0x32, 0x00, 0x00, 0x8c, 0x31, 0x00, 0x00,
  0xd8, 0x30, 0x00, 0x00, 0x30, 0x30, 0x00, 0x00, 0xbc, 0x2f, 0x00, 0x00,
  0x50, 0x2f, 0x00, 0x00, 0x00, 0x13, 0x00, 0x00, 0xec, 0x11, 0x00, 0x00,
  0x10, 0x10, 0x00, 0x00, 0xb4, 0x07, 0x00, 0x00, 0x6c, 0x32, 0x00, 0x00,
  0x68, 0x32, 0x00, 0x00, 0x64, 0x32, 0x00, 0x00, 0x60, 0x32, 0x00, 0x00,
  0x5c, 0x32, 0x00, 0x00, 0x58, 0x32, 0x00, 0x00, 0x54, 0x32, 0x00, 0x00,
  0x50, 0x32, 0x00, 0x00, 0x3c, 0x00, 0x00, 0x00, 0x00, 0x00, 0x00, 0x00,
  0x01, 0x00, 0x00, 0x00, 0x0c, 0x00, 0x00, 0x00, 0x08, 0x00, 0x0c, 0x00,
  0x04, 0x00, 0x08, 0x00, 0x08, 0x00, 0x00, 0x00, 0x08, 0x00, 0x00, 0x00,
  0x13, 0x00, 0x00, 0x00, 0x13, 0x00, 0x00, 0x00, 0x6d, 0x69, 0x6e, 0x5f,
  0x72, 0x75, 0x6e, 0x74, 0x69, 0x6d, 0x65, 0x5f, 0x76, 0x65, 0x72, 0x73,
  0x69, 0x6f, 0x6e, 0x00, 0xfa, 0xce, 0xff, 0xff, 0x04, 0x00, 0x00, 0x00,
  0x10, 0x00, 0x00, 0x00, 0x31, 0x2e, 0x35, 0x2e, 0x30, 0x00, 0x00, 0x00,
  0x00, 0x00, 0x00, 0x00, 0x00, 0x00, 0x00, 0x00, 0x0f, 0x00, 0x00, 0x00,
  0x4d, 0x4c, 0x49, 0x52, 0x20, 0x43, 0x6f, 0x6e, 0x76, 0x65, 0x72, 0x74,
  0x65, 0x64, 0x2e, 0x00, 0x00, 0x00, 0x0e, 0x00, 0x18, 0x00, 0x04, 0x00,
  0x08, 0x00, 0x0c, 0x00, 0x10, 0x00, 0x14, 0x00, 0x0e, 0x00, 0x00, 0x00,
  0x14, 0x00, 0x00, 0x00, 0x5c, 0x00, 0x00, 0x00, 0x60, 0x00, 0x00, 0x00,
  0x64, 0x00, 0x00, 0x00, 0x84, 0x00, 0x00, 0x00, 0x12, 0x00, 0x00, 0x00,
  0x58, 0x31, 0x00, 0x00, 0xe8, 0x30, 0x00, 0x00, 0x44, 0x30, 0x00, 0x00,
  0x9c, 0x2f, 0x00, 0x00, 0xf4, 0x2e, 0x00, 0x00, 0x94, 0x2e, 0x00, 0x00,
  0x2c, 0x2e, 0x00, 0x00, 0xd8, 0x11, 0x00, 0x00, 0xbc, 0x10, 0x00, 0x00,
  0xe0, 0x0e, 0x00, 0x00, 0x0c, 0x06, 0x00, 0x00, 0x28, 0x05, 0x00, 0x00,
  0xe8, 0x03, 0x00, 0x00, 0x3c, 0x03, 0x00, 0x00, 0x98, 0x02, 0x00, 0x00,
  0xd4, 0x01, 0x00, 0x00, 0x10, 0x01, 0x00, 0x00, 0x84, 0x00, 0x00, 0x00,
  0x01, 0x00, 0x00, 0x00, 0x00, 0x00, 0x00, 0x00, 0x01, 0x00, 0x00, 0x00,
  0x11, 0x00, 0x00, 0x00, 0x08, 0x00, 0x00, 0x00, 0x74, 0x05, 0x00, 0x00,
  0x94, 0x04, 0x00, 0x00, 0x78, 0x03, 0x00, 0x00, 0xbc, 0x02, 0x00, 0x00,
  0x30, 0x02, 0x00, 0x00, 0x50, 0x01, 0x00, 0x00, 0xa8, 0x00, 0x00, 0x00,
  0x10, 0x00, 0x00, 0x00, 0x04, 0x00, 0x00, 0x00, 0x6d, 0x61, 0x69, 0x6e,
  0x00, 0x00, 0x00, 0x00, 0x7a, 0xff, 0xff, 0xff, 0x00, 0x00, 0x00, 0x09,
  0x04, 0x00, 0x00, 0x00, 0x1c, 0x00, 0x00, 0x00, 0x10, 0x00, 0x00, 0x00,
  0x04, 0x00, 0x00, 0x00, 0xf6, 0xcf, 0xff, 0xff, 0x00, 0x00, 0x80, 0x3f,
  0x01, 0x00, 0x00, 0x00, 0x11, 0x00, 0x00, 0x00, 0x01, 0x00, 0x00, 0x00,
  0x10, 0x00, 0x00, 0x00, 0xa0, 0xfa, 0xff, 0xff, 0x19, 0x00, 0x00, 0x00,
  0x00, 0x00, 0x00, 0x19, 0x01, 0x00, 0x00, 0x00, 0x84, 0xcf, 0xff, 0xff,
  0x14, 0x00, 0x00, 0x00, 0x12, 0x00, 0x00, 0x00, 0x18, 0x00, 0x00, 0x00,
  0x30, 0x00, 0x00, 0x00, 0x20, 0x00, 0x00, 0x00, 0x02, 0x00, 0x00, 0x00,
  0x01, 0x00, 0x00, 0x00, 0x03, 0x00, 0x00, 0x00, 0x08, 0x00, 0x00, 0x00,
  0x49, 0x64, 0x65, 0x6e, 0x74, 0x69, 0x74, 0x79, 0x00, 0x00, 0x00, 0x00,
  0x02, 0x00, 0x00, 0x00, 0xff, 0xff, 0xff, 0xff, 0x03, 0x00, 0x00, 0x00,
  0x68, 0xd0, 0xff, 0xff, 0x00, 0x00, 0x0e, 0x00, 0x18, 0x00, 0x08, 0x00,
  0x0c, 0x00, 0x10, 0x00, 0x07, 0x00, 0x14, 0x00, 0x0e, 0x00, 0x00, 0x00,
  0x00, 0x00, 0x00, 0x08, 0x03, 0x00, 0x00, 0x00, 0x18, 0x00, 0x00, 0x00,
  0x0c, 0x00, 0x00, 0x00, 0x04, 0x00, 0x00, 0x00, 0x84, 0xcf, 0xff, 0xff,
  0x01, 0x00, 0x00, 0x00, 0x10, 0x00, 0x00, 0x00, 0x03, 0x00, 0x00, 0x00,
  0x0f, 0x00, 0x00, 0x00, 0x07, 0x00, 0x00, 0x00, 0x04, 0x00, 0x00, 0x00,
  0x0c, 0xd0, 0xff, 0xff, 0x14, 0x00, 0x00, 0x00, 0x11, 0x00, 0x00, 0x00,
  0x18, 0x00, 0x00, 0x00, 0x5c, 0x00, 0x00, 0x00, 0x4c, 0x00, 0x00, 0x00,
  0x02, 0x00, 0x00, 0x00, 0x01, 0x00, 0x00, 0x00, 0x03, 0x00, 0x00, 0x00,
  0x34, 0x00, 0x00, 0x00, 0x73, 0x65, 0x71, 0x75, 0x65, 0x6e, 0x74, 0x69,
  0x61, 0x6c, 0x2f, 0x64, 0x65, 0x6e, 0x73, 0x65, 0x5f, 0x31, 0x2f, 0x4d,
  0x61, 0x74, 0x4d, 0x75, 0x6c, 0x3b, 0x73, 0x65, 0x71, 0x75, 0x65, 0x6e,
  0x74, 0x69, 0x61, 0x6c, 0x2f, 0x64, 0x65, 0x6e, 0x73, 0x65, 0x5f, 0x31,
  0x2f, 0x42, 0x69, 0x61, 0x73, 0x41, 0x64, 0x64, 0x00, 0x00, 0x00, 0x00,
  0x02, 0x00, 0x00, 0x00, 0xff, 0xff, 0xff, 0xff, 0x03, 0x00, 0x00, 0x00,
  0x0c, 0xd0, 0xff, 0xff, 0xda, 0xfc, 0xff, 0xff, 0x00, 0x00, 0x00, 0x08,
  0x03, 0x00, 0x00, 0x00, 0x24, 0x00, 0x00, 0x00, 0x18, 0x00, 0x00, 0x00,
  0x0c, 0x00, 0x00, 0x00, 0x00, 0x00, 0x06, 0x00, 0x08, 0x00, 0x07, 0x00,
  0x06, 0x00, 0x00, 0x00, 0x00, 0x00, 0x00, 0x01, 0x01, 0x00, 0x00, 0x00,
  0x0f, 0x00, 0x00, 0x00, 0x03, 0x00, 0x00, 0x00, 0x0e, 0x00, 0x00, 0x00,
  0x06, 0x00, 0x00, 0x00, 0x03, 0x00, 0x00, 0x00, 0xe8, 0xfb, 0xff, 0xff,
  0x09, 0x00, 0x00, 0x00, 0x00, 0x00, 0x00, 0x09, 0x01, 0x00, 0x00, 0x00,
  0xcc, 0xd0, 0xff, 0xff, 0x14, 0x00, 0x00, 0x00, 0x10, 0x00, 0x00, 0x00,
  0x18, 0x00, 0x00, 0x00, 0x6c, 0x00, 0x00, 0x00, 0x5c, 0x00, 0x00, 0x00,
  0x02, 0x00, 0x00, 0x00, 0x01, 0x00, 0x00, 0x00, 0x10, 0x00, 0x00, 0x00,
  0x46, 0x00, 0x00, 0x00, 0x73, 0x65, 0x71, 0x75, 0x65, 0x6e, 0x74, 0x69,
  0x61, 0x6c, 0x2f, 0x64, 0x65, 0x6e, 0x73, 0x65, 0x2f, 0x4d, 0x61, 0x74,
  0x4d, 0x75, 0x6c, 0x3b, 0x73, 0x65, 0x71, 0x75, 0x65, 0x6e, 0x74, 0x69,
  0x61, 0x6c, 0x2f, 0x64, 0x65, 0x6e, 0x73, 0x65, 0x2f, 0x52, 0x65, 0x6c,
  0x75, 0x3b, 0x73, 0x65, 0x71, 0x75, 0x65, 0x6e, 0x74, 0x69, 0x61, 0x6c,
  0x2f, 0x64, 0x65, 0x6e, 0x73, 0x65, 0x2f, 0x42, 0x69, 0x61, 0x73, 0x41,
  0x64, 0x64, 0x00, 0x00, 0x02, 0x00, 0x00, 0x00, 0xff, 0xff, 0xff, 0xff,
  0x10, 0x00, 0x00, 0x00, 0xec, 0xd1, 0xff, 0xff, 0x00, 0x00, 0x0a, 0x00,
  0x10, 0x00, 0x04, 0x00, 0x08, 0x00, 0x0c, 0x00, 0x0a, 0x00, 0x00, 0x00,
  0x02, 0x00, 0x00, 0x00, 0x10, 0x00, 0x00, 0x00, 0x04, 0x00, 0x00, 0x00,
  0x01, 0x00, 0x00, 0x00, 0x0e, 0x00, 0x00, 0x00, 0x02, 0x00, 0x00, 0x00,
  0x0d, 0x00, 0x00, 0x00, 0x05, 0x00, 0x00, 0x00, 0xa8, 0xfc, 0xff, 0xff,
  0x16, 0x00, 0x00, 0x00, 0x00, 0x00, 0x00, 0x16, 0x01, 0x00, 0x00, 0x00,
  0x8c, 0xd1, 0xff, 0xff, 0x14, 0x00, 0x00, 0x00, 0x0f, 0x00, 0x00, 0x00,
  0x18, 0x00, 0x00, 0x00, 0x40, 0x00, 0x00, 0x00, 0x30, 0x00, 0x00, 0x00,
  0x02, 0x00, 0x00, 0x00, 0x01, 0x00, 0x00, 0x00, 0x70, 0x00, 0x00, 0x00,
  0x1a, 0x00, 0x00, 0x00, 0x73, 0x65, 0x71, 0x75, 0x65, 0x6e, 0x74, 0x69,
  0x61, 0x6c, 0x2f, 0x66, 0x6c, 0x61, 0x74, 0x74, 0x65, 0x6e, 0x2f, 0x52,
  0x65, 0x73, 0x68, 0x61, 0x70, 0x65, 0x00, 0x00, 0x02, 0x00, 0x00, 0x00,
  0xff, 0xff, 0xff, 0xff, 0x70, 0x00, 0x00, 0x00, 0x70, 0xd1, 0xff, 0xff,
  0x3e, 0xfe, 0xff, 0xff, 0x00, 0x00, 0x00, 0x05, 0x01, 0x00, 0x00, 0x00,
  0x38, 0x00, 0x00, 0x00, 0x2c, 0x00, 0x00, 0x00, 0x14, 0x00, 0x00, 0x00,
  0x00, 0x00, 0x0e, 0x00, 0x14, 0x00, 0x00, 0x00, 0x10, 0x00, 0x0c, 0x00,
  0x08, 0x00, 0x04, 0x00, 0x0e, 0x00, 0x00, 0x00, 0x03, 0x00, 0x00, 0x00,
  0x01, 0x00, 0x00, 0x00, 0x03, 0x00, 0x00, 0x00, 0x01, 0x00, 0x00, 0x00,
  0x01, 0x00, 0x00, 0x00, 0x0d, 0x00, 0x00, 0x00, 0x01, 0x00, 0x00, 0x00,
  0x0c, 0x00, 0x00, 0x00, 0x2c, 0xd2, 0xff, 0xff, 0x14, 0x00, 0x00, 0x00,
  0x0e, 0x00, 0x00, 0x00, 0x20, 0x00, 0x00, 0x00, 0x58, 0x00, 0x00, 0x00,
  0x40, 0x00, 0x00, 0x00, 0x04, 0x00, 0x00, 0x00, 0x01, 0x00, 0x00, 0x00,
  0x07, 0x00, 0x00, 0x00, 0x01, 0x00, 0x00, 0x00, 0x10, 0x00, 0x00, 0x00,
  0x22, 0x00, 0x00, 0x00, 0x73, 0x65, 0x71, 0x75, 0x65, 0x6e, 0x74, 0x69,
  0x61, 0x6c, 0x2f, 0x6d, 0x61, 0x78, 0x5f, 0x70, 0x6f, 0x6f, 0x6c, 0x69,
  0x6e, 0x67, 0x32, 0x64, 0x5f, 0x31, 0x2f, 0x4d, 0x61, 0x78, 0x50, 0x6f,
  0x6f, 0x6c, 0x00, 0x00, 0x04, 0x00, 0x00, 0x00, 0xff, 0xff, 0xff, 0xff,
  0x07, 0x00, 0x00, 0x00, 0x01, 0x00, 0x00, 0x00, 0x10, 0x00, 0x00, 0x00,
  0x28, 0xd2, 0xff, 0xff, 0x1a, 0xfe, 0xff, 0xff, 0x00, 0x00, 0x00, 0x01,
  0x24, 0x00, 0x00, 0x00, 0x18, 0x00, 0x00, 0x00, 0x04, 0x00, 0x00, 0x00,
  0x0c, 0xfe, 0xff, 0xff, 0x01, 0x00, 0x00, 0x00, 0x01, 0x00, 0x00, 0x00,
  0x00, 0x00, 0x00, 0x01, 0x01, 0x00, 0x00, 0x00, 0x0c, 0x00, 0x00, 0x00,
  0x03, 0x00, 0x00, 0x00, 0x0b, 0x00, 0x00, 0x00, 0x09, 0x00, 0x00, 0x00,
  0x02, 0x00, 0x00, 0x00, 0xd4, 0xd2, 0xff, 0xff, 0x14, 0x00, 0x00, 0x00,
  0x0d, 0x00, 0x00, 0x00, 0x20, 0x00, 0x00, 0x00, 0xb8, 0x00, 0x00, 0x00,
  0xa0, 0x00, 0x00, 0x00, 0x04, 0x00, 0x00, 0x00, 0x01, 0x00, 0x00, 0x00,
  0x15, 0x00, 0x00, 0x00, 0x01, 0x00, 0x00, 0x00, 0x10, 0x00, 0x00, 0x00,
  0x83, 0x00, 0x00, 0x00, 0x73, 0x65, 0x71, 0x75, 0x65, 0x6e, 0x74, 0x69,
  0x61, 0x6c, 0x2f, 0x63, 0x6f, 0x6e, 0x76, 0x32, 0x64, 0x5f, 0x31, 0x2f,
  0x52, 0x65, 0x6c, 0x75, 0x3b, 0x73, 0x65, 0x71, 0x75, 0x65, 0x6e, 0x74,
  0x69, 0x61, 0x6c, 0x2f, 0x63, 0x6f, 0x6e, 0x76, 0x32, 0x64, 0x5f, 0x31,
  0x2f, 0x42, 0x69, 0x61, 0x73, 0x41, 0x64, 0x64, 0x3b, 0x73, 0x65, 0x71,
  0x75, 0x65, 0x6e, 0x74, 0x69, 0x61, 0x6c, 0x2f, 0x63, 0x6f, 0x6e, 0x76,
  0x32, 0x64, 0x5f, 0x31, 0x2f, 0x43, 0x6f, 0x6e, 0x76, 0x32, 0x44, 0x3b,
  0x73, 0x65, 0x71, 0x75, 0x65, 0x6e, 0x74, 0x69, 0x61, 0x6c, 0x2f, 0x63,
  0x6f, 0x6e, 0x76, 0x32, 0x64, 0x5f, 0x31, 0x2f, 0x42, 0x69, 0x61, 0x73,
  0x41, 0x64, 0x64, 0x2f, 0x52, 0x65, 0x61, 0x64, 0x56, 0x61, 0x72, 0x69,
  0x61, 0x62, 0x6c, 0x65, 0x4f, 0x70, 0x2f, 0x72, 0x65, 0x73, 0x6f, 0x75,
  0x72, 0x63, 0x65, 0x00, 0x04, 0x00, 0x00, 0x00, 0xff, 0xff, 0xff, 0xff,
  0x15, 0x00, 0x00, 0x00, 0x01, 0x00, 0x00, 0x00, 0x10, 0x00, 0x00, 0x00,
  0x40, 0xd4, 0xff, 0xff, 0x00, 0x00, 0x0e, 0x00, 0x1a, 0x00, 0x08, 0x00,
  0x0c, 0x00, 0x10, 0x00, 0x07, 0x00, 0x14, 0x00, 0x0e, 0x00, 0x00, 0x00,
  0x00, 0x00, 0x00, 0x05, 0x01, 0x00, 0x00, 0x00, 0x3c, 0x00, 0x00, 0x00,
  0x30, 0x00, 0x00, 0x00, 0x14, 0x00, 0x00, 0x00, 0x00, 0x00, 0x0e, 0x00,
  0x18, 0x00, 0x17, 0x00, 0x10, 0x00, 0x0c, 0x00, 0x08, 0x00, 0x04, 0x00,
  0x0e, 0x00, 0x00, 0x00, 0x03, 0x00, 0x00, 0x00, 0x03, 0x00, 0x00, 0x00,
  0x03, 0x00, 0x00, 0x00, 0x03, 0x00, 0x00, 0x00, 0x00, 0x00, 0x00, 0x01,
  0x01, 0x00, 0x00, 0x00, 0x0b, 0x00, 0x00, 0x00, 0x01, 0x00, 0x00, 0x00,
  0x0a, 0x00, 0x00, 0x00, 0x2c, 0xff, 0xff, 0xff, 0x11, 0x00, 0x00, 0x00,
  0x00, 0x00, 0x00, 0x11, 0x01, 0x00, 0x00, 0x00, 0x10, 0xd4, 0xff, 0xff,
  0x14, 0x00, 0x00, 0x00, 0x0c, 0x00, 0x00, 0x00, 0x20, 0x00, 0x00, 0x00,
  0x58, 0x00, 0x00, 0x00, 0x40, 0x00, 0x00, 0x00, 0x04, 0x00, 0x00, 0x00,
  0x01, 0x00, 0x00, 0x00, 0x15, 0x00, 0x00, 0x00, 0x01, 0x00, 0x00, 0x00,
  0x08, 0x00, 0x00, 0x00, 0x20, 0x00, 0x00, 0x00, 0x73, 0x65, 0x71, 0x75,
  0x65, 0x6e, 0x74, 0x69, 0x61, 0x6c, 0x2f, 0x6d, 0x61, 0x78, 0x5f, 0x70,
  0x6f, 0x6f, 0x6c, 0x69, 0x6e, 0x67, 0x32, 0x64, 0x2f, 0x4d, 0x61, 0x78,
  0x50, 0x6f, 0x6f, 0x6c, 0x00, 0x00, 0x00, 0x00, 0x04, 0x00, 0x00, 0x00,
  0xff, 0xff, 0xff, 0xff, 0x15, 0x00, 0x00, 0x00, 0x01, 0x00, 0x00, 0x00,
  0x08, 0x00, 0x00, 0x00, 0x1c, 0xd5, 0xff, 0xff, 0x00, 0x00, 0x0e, 0x00,
  0x14, 0x00, 0x00, 0x00, 0x08, 0x00, 0x0c, 0x00, 0x07, 0x00, 0x10, 0x00,
  0x0e, 0x00, 0x00, 0x00, 0x00, 0x00, 0x00, 0x01, 0x30, 0x00, 0x00, 0x00,
  0x24, 0x00, 0x00, 0x00, 0x10, 0x00, 0x00, 0x00, 0x0c, 0x00, 0x10, 0x00,
  0x00, 0x00, 0x04, 0x00, 0x08, 0x00, 0x0f, 0x00, 0x0c, 0x00, 0x00, 0x00,
  0x01, 0x00, 0x00, 0x00, 0x01, 0x00, 0x00, 0x00, 0x00, 0x00, 0x00, 0x01,
  0x01, 0x00, 0x00, 0x00, 0x0a, 0x00, 0x00, 0x00, 0x03, 0x00, 0x00, 0x00,
  0x00, 0x00, 0x00, 0x00, 0x08, 0x00, 0x00, 0x00, 0x01, 0x00, 0x00, 0x00,
  0x0c, 0x00, 0x10, 0x00, 0x0b, 0x00, 0x00, 0x00, 0x0c, 0x00, 0x04, 0x00,
  0x0c, 0x00, 0x00, 0x00, 0x03, 0x00, 0x00, 0x00, 0x00, 0x00, 0x00, 0x03,
  0x01, 0x00, 0x00, 0x00, 0xf0, 0xd4, 0xff, 0xff, 0x14, 0x00, 0x00, 0x00,
  0x0b, 0x00, 0x00, 0x00, 0x20, 0x00, 0x00, 0x00, 0xb0, 0x00, 0x00, 0x00,
  0x98, 0x00, 0x00, 0x00, 0x04, 0x00, 0x00, 0x00, 0x01, 0x00, 0x00, 0x00,
  0x40, 0x00, 0x00, 0x00, 0x03, 0x00, 0x00, 0x00, 0x08, 0x00, 0x00, 0x00,
  0x7b, 0x00, 0x00, 0x00, 0x73, 0x65, 0x71, 0x75, 0x65, 0x6e, 0x74, 0x69,
  0x61, 0x6c, 0x2f, 0x63, 0x6f, 0x6e, 0x76, 0x32, 0x64, 0x2f, 0x52, 0x65,
  0x6c, 0x75, 0x3b, 0x73, 0x65, 0x71, 0x75, 0x65, 0x6e, 0x74, 0x69, 0x61,
  0x6c, 0x2f, 0x63, 0x6f, 0x6e, 0x76, 0x32, 0x64, 0x2f, 0x42, 0x69, 0x61,
  0x73, 0x41, 0x64, 0x64, 0x3b, 0x73, 0x65, 0x71, 0x75, 0x65, 0x6e, 0x74,
  0x69, 0x61, 0x6c, 0x2f, 0x63, 0x6f, 0x6e, 0x76, 0x32, 0x64, 0x2f, 0x43,
  0x6f, 0x6e, 0x76, 0x32, 0x44, 0x3b, 0x73, 0x65, 0x71, 0x75, 0x65, 0x6e,
  0x74, 0x69, 0x61, 0x6c, 0x2f, 0x63, 0x6f, 0x6e, 0x76, 0x32, 0x64, 0x2f,
  0x42, 0x69, 0x61, 0x73, 0x41, 0x64, 0x64, 0x2f, 0x52, 0x65, 0x61, 0x64,
  0x56, 0x61, 0x72, 0x69, 0x61, 0x62, 0x6c, 0x65, 0x4f, 0x70, 0x2f, 0x72,
  0x65, 0x73, 0x6f, 0x75, 0x72, 0x63, 0x65, 0x00, 0x04, 0x00, 0x00, 0x00,
  0xff, 0xff, 0xff, 0xff, 0x40, 0x00, 0x00, 0x00, 0x03, 0x00, 0x00, 0x00,
  0x08, 0x00, 0x00, 0x00, 0x44, 0xd5, 0xff, 0xff, 0x4e, 0xd6, 0xff, 0xff,
  0x04, 0x00, 0x00, 0x00, 0x00, 0x08, 0x00, 0x00, 0x5b, 0x2e, 0x83, 0xbe,
  0x8f, 0x11, 0xcf, 0xbe, 0x5e, 0x69, 0xbc, 0xbd, 0xbd, 0x9b, 0xbf, 0xbe,
  0xba, 0x79, 0x32, 0xbe, 0xd5, 0xa7, 0xbc, 0xbe, 0xe0, 0x72, 0xd8, 0xbe,
  0x66, 0x11, 0xed, 0xbe, 0x6d, 0x6a, 0xa1, 0xbd, 0x29, 0xb9, 0xcf, 0xbe,
  0x27, 0x42, 0x67, 0xbd, 0x7b, 0x2e, 0x3e, 0xbe, 0xa6, 0x66, 0x3a, 0xbc,
  0x14, 0x8c, 0xb2, 0x3e, 0x9b, 0x13, 0x62, 0xbe, 0xdb, 0xec, 0xaf, 0xbd,
  0xd9, 0xb8, 0x46, 0x3c, 0xc4, 0xbe, 0x95, 0xbe, 0x91, 0xd0, 0x41, 0xbc,
  0x42, 0x00, 0x41, 0x3e, 0xb8, 0x9b, 0x86, 0xbd, 0x82, 0xe0, 0x42, 0x3e,
  0x7f, 0xba, 0xbc, 0xbd, 0x99, 0xa1, 0xd0, 0x3e, 0x77, 0x4d, 0x98, 0xbd,
  0xe9, 0x40, 0x34, 0x3e, 0x28, 0x07, 0x09, 0x3e, 0x98, 0x2a, 0xf1, 0x3c,
  0xa8, 0x1d, 0xd5, 0x3a, 0x81, 0x80, 0xe1, 0x3e, 0xb2, 0xc1, 0xa5, 0xbd,
  0x26, 0xf3, 0x14, 0x3e, 0xd6, 0x3f, 0x02, 0xbe, 0x7f, 0xf5, 0x3c, 0xbf,
  0xcb, 0x69, 0xcb, 0xbd, 0x0e, 0x6e, 0xf9, 0xbe, 0x98, 0x53, 0x20, 0xbe,
  0xfe, 0xb0, 0xfd, 0x3d, 0xc9, 0xab, 0x62, 0xbe, 0xd8, 0x76, 0xf6, 0x3d,
  0xb0, 0x53, 0x9f, 0xbe, 0xf5, 0x23, 0x61, 0xbd, 0xe5, 0x42, 0x65, 0x3d,
  0xb1, 0x1a, 0x37, 0x3e, 0x4e, 0xc2, 0x50, 0xbe, 0xdd, 0x0a, 0xed, 0x3d,
  0x44, 0x7d, 0x71, 0xbe, 0x86, 0x64, 0x25, 0x3f, 0x80, 0x11, 0x86, 0xbd,
  0xf0, 0x66, 0x38, 0x3e, 0x7a, 0xbd, 0x0a, 0x3d, 0xdb, 0xac, 0xa3, 0x3d,
  0xea, 0x2c, 0x44, 0xbe, 0x15, 0x4b, 0xd2, 0xbe, 0x08, 0xad, 0x0c, 0xbe,
  0x49, 0x42, 0xba, 0xbe, 0xf5, 0x9c, 0xee, 0xbd, 0x61, 0x64, 0x79, 0x3e,
  0x31, 0x9d, 0xb4, 0xbd, 0xac, 0xde, 0x21, 0x3d, 0xec, 0x4b, 0x7b, 0x3e,
  0x85, 0x5f, 0xb6, 0xbd, 0xed, 0x05, 0x6c, 0xbd, 0x24, 0x4e, 0x7e, 0xbd,
  0x21, 0x29, 0x10, 0xbe, 0x28, 0x20, 0x87, 0xbe, 0xa0, 0xf3, 0x09, 0x3d,
  0x64, 0xb6, 0x27, 0x3f, 0xc7, 0x1b, 0x8d, 0xbd, 0x34, 0x97, 0x04, 0x3d,
  0x8e, 0x5c, 0x81, 0xbe, 0x29, 0xfb, 0x1a, 0x3f, 0x41, 0x18, 0xde, 0xbd,
  0xc3, 0xd5, 0xfe, 0x3d, 0xa4, 0x96, 0x69, 0x3d, 0xcd, 0x82, 0x6f, 0xbd,
  0x82, 0x68, 0x26, 0x3d, 0x94, 0x36, 0x71, 0x3e, 0xca, 0xda, 0x4c, 0xbe,
  0x21, 0x31, 0x6c, 0xbe, 0x94, 0x75, 0x92, 0xbd, 0x66, 0x08, 0x94, 0x3e,
  0xa5, 0xeb, 0x44, 0xbc, 0xec, 0x56, 0x41, 0xbb, 0x54, 0x7d, 0xff, 0xbd,
  0x7b, 0xb3, 0x3c, 0x3e, 0x9c, 0xcf, 0xef, 0xbd, 0x06, 0x6a, 0x63, 0xbd,
  0x88, 0x84, 0x05, 0xbe, 0xf6, 0xbf, 0xff, 0xbc, 0xe4, 0x1b, 0xee, 0xbd,
  0x47, 0x0d, 0xb0, 0xbd, 0xfd, 0x3e, 0x42, 0xbe, 0xcb, 0x5e, 0x5b, 0x3e,
  0x01, 0xb7, 0xd0, 0xbd, 0xa6, 0xaa, 0x8a, 0x3c, 0x91, 0x65, 0xc5, 0x3d,
  0x9d, 0xf5, 0x15, 0x3e, 0x40, 0x63, 0x7b, 0x3c, 0x6f, 0x17, 0x9c, 0xbe,
  0x2d, 0xd9, 0x52, 0x3d, 0xe8, 0xd0, 0xd5, 0xbe, 0x61, 0x37, 0x1b, 0xbd,
  0xed, 0x4f, 0x87, 0xbe, 0xaf, 0xfe, 0x49, 0xbe, 0xee, 0xe2, 0x2d, 0xbd,
  0xd1, 0xd7, 0xa5, 0xbe, 0x16, 0xa3, 0x63, 0xbd, 0xa1, 0x8c, 0x0a, 0xbe,
  0xaa, 0x6a, 0xe1, 0xbe, 0x02, 0xa5, 0xfb, 0xbc, 0x8d, 0xf7, 0xba, 0xbe,
  0x20, 0x40, 0xe0, 0xbd, 0x26, 0x55, 0xd8, 0xbb, 0xcd, 0x5c, 0xb1, 0xbe,
  0x8f, 0xdc, 0xca, 0x3d, 0x26, 0x3d, 0x08, 0xbd, 0x27, 0x3e, 0xde, 0xbc,
  0xf8, 0x67, 0xc8, 0xbd, 0xc3, 0xd0, 0x75, 0xbe, 0x7e, 0x32, 0x21, 0x3e,
  0xa7, 0x4e, 0xf7, 0x3d, 0x27, 0xee, 0x63, 0xbe, 0x47, 0xed, 0xaf, 0x3d,
  0x0e, 0x08, 0xf3, 0xbd, 0xec, 0xf2, 0xea, 0x3d, 0x1b, 0xdf, 0xbc, 0x3e,
  0x09, 0x27, 0xc9, 0xbc, 0x02, 0x03, 0xf6, 0xbd, 0x0a, 0xfc, 0x6b, 0xbe,
  0xdc, 0xe2, 0xb4, 0x3d, 0x28, 0x81, 0x3c, 0xbf, 0x83, 0x39, 0xa3, 0xbd,
  0xe8, 0xc6, 0x8e, 0xbe, 0xa0, 0xf0, 0x6b, 0x3c, 0xe1, 0x95, 0x69, 0xbe,
  0x49, 0xb0, 0xb1, 0x3d, 0x27, 0xaa, 0xa6, 0xbc, 0x41, 0x7b, 0xa0, 0xbc,
  0xf4, 0x2a, 0xdb, 0xbe, 0xe9, 0x8a, 0x80, 0x3c, 0x78, 0xbf, 0x1f, 0x3d,
  0xdb, 0xed, 0x07, 0x3d, 0xcb, 0xb0, 0xd3, 0x3e, 0x12, 0x0d, 0xdf, 0xbd,
  0x4f, 0x4d, 0xcf, 0xbd, 0x56, 0xcd, 0x10, 0x3c, 0xce, 0xb5, 0xf8, 0x3c,
  0x7a, 0x73, 0x39, 0x3e, 0xd0, 0x3b, 0xc2, 0x3e, 0x57, 0xf0, 0xa4, 0xbc,
  0xf4, 0xf7, 0x38, 0xbe, 0xa8, 0xee, 0x1d, 0xbe, 0x36, 0xe3, 0x46, 0xbf,
  0x9e, 0x6a, 0x6c, 0x3b, 0x1f, 0x6d, 0x5e, 0x3e, 0x6c, 0x62, 0x89, 0xbe,
  0x10, 0x47, 0xff, 0xbe, 0xc1, 0x71, 0x26, 0xbe, 0xb7, 0x5f, 0x9b, 0xbd,
  0x6b, 0x19, 0xe8, 0xbd, 0xe4, 0xbe, 0x95, 0xbd, 0xd3, 0x3f, 0xa4, 0xba,
  0x5a, 0x83, 0x84, 0xbe, 0x18, 0xd7, 0xb0, 0xbd, 0xd8, 0xdb, 0x54, 0xbe,
  0x0f, 0x07, 0x1e, 0xbe, 0x38, 0x12, 0xaf, 0xbe, 0x70, 0x9d, 0x57, 0x3d,
  0xe3, 0x64, 0xa7, 0xbe, 0x15, 0x02, 0xeb, 0xbd, 0x0b, 0xc1, 0xec, 0xbd,
  0x74, 0x55, 0x25, 0xbd, 0x2a, 0xde, 0x07, 0x3e, 0x55, 0x1f, 0x5a, 0xbe,
  0xe5, 0x1d, 0x02, 0x3d, 0x0c, 0xc3, 0x1e, 0xbd, 0x8d, 0x7d, 0x28, 0xbf,
  0x36, 0xd9, 0xe6, 0xbc, 0x57, 0x5a, 0x89, 0x3e, 0x28, 0x7d, 0x2e, 0xbd,
  0x37, 0x6a, 0x85, 0x3e, 0xd8, 0x31, 0x7f, 0xbd, 0x40, 0x2e, 0x46, 0x3e,
  0x4b, 0xbe, 0x07, 0xbf, 0x4b, 0xe7, 0xe6, 0xbd, 0x5c, 0x1f, 0xcd, 0xbe,
  0x51, 0x0b, 0xb3, 0xbe, 0xd1, 0xef, 0x75, 0xbe, 0xfc, 0xe8, 0xe8, 0xbd,
  0xe4, 0xbf, 0xb0, 0x3d, 0x9e, 0x68, 0x11, 0xbe, 0x85, 0x58, 0x5e, 0xbe,
  0x52, 0xe5, 0x56, 0xbe, 0x81, 0x1a, 0x33, 0xbe, 0xd4, 0x8b, 0x00, 0x3d,
  0x96, 0x73, 0xe7, 0xbd, 0x81, 0x8c, 0x65, 0xbe, 0x5f, 0x54, 0x27, 0xbe,
  0x80, 0xf0, 0x73, 0xbe, 0xa0, 0x63, 0xfc, 0x3c, 0x72, 0xde, 0x5d, 0xbd,
  0x6a, 0x7a, 0xf6, 0xbd, 0x24, 0xdb, 0x4e, 0x3d, 0xe8, 0xd3, 0xdb, 0xbd,
  0xff, 0xc0, 0x9e, 0xbd, 0xfb, 0x37, 0xfd, 0xbd, 0xeb, 0x16, 0x1b, 0x3c,
  0x2c, 0x6b, 0xdc, 0x3e, 0x2e, 0xdd, 0x2e, 0xbb, 0xe1, 0x76, 0x7f, 0xbe,
  0x24, 0x8b, 0xf5, 0x3c, 0xff, 0x7f, 0xb2, 0xbe, 0x1e, 0xb5, 0xcf, 0x3d,
  0x19, 0x37, 0x3a, 0x3c, 0x69, 0x04, 0x9a, 0x3e, 0x54, 0x5f, 0x29, 0x3e,
  0xf7, 0x6f, 0x10, 0xbe, 0x18, 0xab, 0x79, 0xbe, 0x77, 0xa7, 0x0a, 0xbe,
  0xab, 0x9e, 0x84, 0xbe, 0xb6, 0x17, 0x76, 0x3d, 0xaf, 0x86, 0x51, 0x3e,
  0x7d, 0xcc, 0xe5, 0x3c, 0x77, 0x86, 0x94, 0x3e, 0xa8, 0x02, 0xbd, 0x3c,
  0xfa, 0xd1, 0xfe, 0xbe, 0xd9, 0x2e, 0xd1, 0xbc, 0xc5, 0xc5, 0x30, 0xbe,
  0xaf, 0xe9, 0x2d, 0x3e, 0x02, 0x24, 0xd8, 0x3e, 0x19, 0xc6, 0x15, 0x3e,
  0x4b, 0xb9, 0x1f, 0xbe, 0x46, 0xfa, 0x4a, 0xbe, 0x64, 0x17, 0xac, 0xbe,
  0x0c, 0x23, 0xad, 0xbe, 0x69, 0x6e, 0xd9, 0xbd, 0x3b, 0x5a, 0x9f, 0x3d,
  0x43, 0xfa, 0xae, 0xbd, 0x82, 0x35, 0x0d, 0xbe, 0xcd, 0x48, 0xc7, 0xbe,
  0xa4, 0x96, 0x9f, 0xbe, 0xa6, 0x8b, 0x02, 0xbe, 0x4b, 0x9a, 0xfb, 0xbb,
  0x80, 0x7f, 0xb7, 0xbc, 0xc9, 0x0b, 0xa6, 0x3e, 0xed, 0xd3, 0x3b, 0xbe,
  0x56, 0x56, 0x46, 0xbe, 0x7b, 0x72, 0xf0, 0xbe, 0x46, 0x6b, 0xdb, 0xbe,
  0xa9, 0x14, 0xc4, 0x3d, 0xbd, 0xeb, 0x6e, 0xbd, 0xf1, 0xd2, 0xfc, 0x3d,
  0xaf, 0x6f, 0xa3, 0x3e, 0xc5, 0x61, 0x57, 0xbe, 0x56, 0x43, 0xd1, 0xbd,
  0xc0, 0xfc, 0x88, 0xbe, 0xad, 0x1e, 0x97, 0xbe, 0x80, 0xfb, 0x25, 0xbe,
  0xa7, 0xfe, 0x80, 0xbe, 0xaa, 0x52, 0x4f, 0xbe, 0x8f, 0xa5, 0x6d, 0xbe,
  0x45, 0xed, 0xa1, 0xbe, 0x0c, 0x08, 0xb3, 0xbd, 0x37, 0x98, 0xfc, 0xbd,
  0x12, 0xec, 0x0f, 0x3d, 0xe5, 0x6f, 0xbe, 0xbd, 0x67, 0xd5, 0x16, 0xbe,
  0xb0, 0x91, 0x0c, 0xbe, 0xa2, 0x8c, 0xdd, 0x3e, 0xa2, 0xf7, 0x54, 0xbe,
  0xff, 0x59, 0xf2, 0x3d, 0x66, 0xb9, 0xb7, 0xbc, 0xb2, 0x9c, 0xc4, 0x3e,
  0xff, 0x62, 0xaf, 0x3b, 0x14, 0x1d, 0x3e, 0x3e, 0x71, 0x25, 0xce, 0xbc,
  0x26, 0xa5, 0x22, 0x3e, 0xdb, 0xf9, 0x5e, 0xbd, 0x59, 0xfa, 0xa5, 0x3e,
  0xa9, 0x95, 0x08, 0xbe, 0x89, 0xdf, 0x28, 0xbe, 0x3f, 0xf9, 0x89, 0xbd,
  0x9c, 0x3e, 0xc8, 0x3c, 0xa1, 0x0c, 0xa0, 0xbd, 0x11, 0x23, 0x15, 0xbf,
  0x1f, 0xe8, 0x8d, 0xbd, 0xe9, 0x5c, 0xf5, 0xbe, 0xa2, 0xb2, 0x3f, 0xbe,
  0xd8, 0x97, 0x78, 0xbe, 0xc8, 0x86, 0x4d, 0xbd, 0x3b, 0x84, 0xac, 0xbe,
  0x24, 0x28, 0x95, 0xbd, 0xce, 0x2c, 0xd6, 0x3d, 0x48, 0x4e, 0xeb, 0xbd,
  0x49, 0x98, 0xbc, 0xbd, 0x79, 0xb8, 0x23, 0xbe, 0xcc, 0x3a, 0x30, 0xbe,
  0x10, 0xb1, 0x07, 0xbd, 0x61, 0x24, 0x7a, 0xbb, 0x84, 0xd4, 0x13, 0xbd,
  0x6e, 0xc0, 0xb8, 0x3d, 0xb2, 0xb7, 0x35, 0xbe, 0x5a, 0xf2, 0x08, 0xbe,
  0x51, 0x5a, 0xd7, 0x3c, 0x74, 0x71, 0x70, 0x3d, 0xc5, 0x7f, 0x8e, 0xbc,
  0x0e, 0x7f, 0x09, 0x3e, 0xd0, 0xf9, 0x13, 0xbd, 0x68, 0x3d, 0x51, 0xbe,
  0xf9, 0xee, 0xef, 0xbd, 0x19, 0x55, 0x4a, 0xbe, 0x83, 0x20, 0x93, 0x3e,
  0xed, 0x0b, 0xd5, 0x3e, 0xab, 0x0c, 0xdf, 0xbd, 0x90, 0xb6, 0x24, 0x3e,
  0xf1, 0x6f, 0x5b, 0xbe, 0x96, 0x76, 0xee, 0xbd, 0x32, 0xca, 0xa1, 0x3e,
  0x78, 0x46, 0x97, 0xbd, 0x86, 0xc0, 0x58, 0x3d, 0xc6, 0x84, 0xf3, 0xbb,
  0xd8, 0x9d, 0x83, 0x3a, 0xc1, 0x99, 0x21, 0x3f, 0x54, 0xc5, 0x36, 0xbe,
  0x81, 0x46, 0x39, 0x3e, 0x0c, 0xff, 0xae, 0xbd, 0x8e, 0x82, 0x37, 0xbe,
  0x59, 0x08, 0x98, 0xbc, 0xac, 0xf5, 0x1e, 0x3e, 0xa8, 0xbc, 0x35, 0xbe,
  0xa1, 0x45, 0x92, 0x3e, 0xaf, 0x67, 0x27, 0xbe, 0x11, 0x6a, 0x93, 0xbe,
  0xc9, 0x3e, 0x6c, 0x3d, 0xde, 0x1e, 0xfe, 0xbd, 0x82, 0x30, 0x76, 0x3e,
  0xa8, 0xf8, 0xa5, 0x3c, 0x00, 0xc6, 0x94, 0xbe, 0xc8, 0x7b, 0xdb, 0xbe,
  0x2b, 0xba, 0x29, 0xbd, 0x8a, 0xe8, 0x52, 0x3c, 0xba, 0x9c, 0xe2, 0x3d,
  0x90, 0x06, 0x1d, 0xbd, 0xe1, 0x0d, 0x7a, 0xbe, 0x88, 0xc3, 0x52, 0xbe,
  0x86, 0x68, 0xc8, 0xbd, 0x27, 0x51, 0x2b, 0xbf, 0x8c, 0x0a, 0x62, 0xbd,
  0xa1, 0x58, 0x07, 0x3e, 0x71, 0x4b, 0xaf, 0x3c, 0x14, 0x8d, 0x78, 0x3d,
  0x5b, 0xb7, 0x59, 0xbd, 0xff, 0x50, 0x9a, 0xbd, 0xfa, 0x57, 0x07, 0xbe,
  0x43, 0xe4, 0x2c, 0xbb, 0x4e, 0x56, 0x26, 0xbe, 0xf2, 0x67, 0xeb, 0x3c,
  0xf2, 0x58, 0x3b, 0xbe, 0xa1, 0x57, 0x9b, 0x3c, 0x2e, 0x87, 0xf1, 0xbd,
  0x25, 0x76, 0xc3, 0xbc, 0xa8, 0x26, 0x94, 0xbe, 0xd3, 0x63, 0x00, 0x3d,
  0xc0, 0xe0, 0x96, 0xbe, 0xcf, 0x74, 0x7e, 0x3d, 0x91, 0x47, 0xcf, 0x3e,
  0x9a, 0xc3, 0xb9, 0x3d, 0x77, 0x50, 0x0d, 0x3f, 0x5a, 0x8d, 0x3c, 0xbd,
  0x3d, 0x21, 0xca, 0xbe, 0xe4, 0x58, 0x6c, 0xbb, 0xb4, 0x77, 0x1c, 0xbe,
  0x78, 0xe3, 0x1a, 0x3e, 0x77, 0x57, 0xe2, 0xbd, 0x4e, 0x74, 0x73, 0x3c,
  0x5b, 0xe2, 0x40, 0xbe, 0xc4, 0xca, 0x15, 0xbe, 0xc0, 0xb7, 0x34, 0xbe,
  0xb3, 0xc9, 0xfe, 0xbc, 0xb8, 0x68, 0xd8, 0x3c, 0x3c, 0x86, 0xb5, 0x3d,
  0x29, 0x14, 0x61, 0xbd, 0xc7, 0xdd, 0x8b, 0x3c, 0xd7, 0xf3, 0x9b, 0xbe,
  0x54, 0x48, 0x16, 0xbf, 0xf1, 0xec, 0x2f, 0xbc, 0xec, 0xd4, 0xce, 0xbd,
  0xf6, 0x10, 0xa7, 0xbe, 0x97, 0x9d, 0x20, 0x3e, 0xb2, 0xf3, 0xd5, 0xbe,
  0xc2, 0x6a, 0x2c, 0x3d, 0x01, 0xb1, 0x81, 0x3e, 0xec, 0xde, 0xa0, 0x3d,
  0x6c, 0x29, 0xc7, 0x3d, 0xc9, 0xa5, 0x3b, 0xbf, 0x0c, 0xb1, 0x03, 0xbd,
  0x41, 0xd5, 0xa6, 0xbd, 0x7a, 0x3f, 0x0e, 0xbd, 0x64, 0x03, 0x98, 0x3e,
  0x69, 0xdc, 0x0d, 0xbe, 0x93, 0x0d, 0x2e, 0x3d, 0x43, 0xe9, 0x01, 0xbd,
  0xcc, 0xc4, 0xab, 0x3d, 0xca, 0xcf, 0xdd, 0x3d, 0xc3, 0x12, 0xea, 0x3d,
  0x2d, 0x21, 0x3e, 0xbd, 0xf0, 0x65, 0xa3, 0xbe, 0x88, 0x0e, 0x2d, 0xbe,
  0xb6, 0x63, 0x52, 0x3e, 0xb2, 0x8d, 0x16, 0xbc, 0x19, 0xb1, 0x05, 0x3e,
  0xe6, 0xcc, 0x0a, 0x3e, 0x5a, 0x69, 0x78, 0xbe, 0xc6, 0xf6, 0x9d, 0x3d,
  0x04, 0xe4, 0xae, 0xbe, 0x96, 0xce, 0x90, 0xbe, 0xc7, 0x43, 0x6c, 0xbe,
  0x5c, 0x3f, 0x4a, 0xbe, 0x00, 0xda, 0xa0, 0xbe, 0xcc, 0x39, 0x87, 0xbe,
  0x39, 0x5b, 0xe3, 0xbe, 0x1a, 0x3c, 0x8e, 0xbe, 0xf7, 0x8b, 0xd7, 0xbe,
  0x6d, 0x7f, 0x1b, 0xbe, 0x62, 0xf4, 0x13, 0xbe, 0x0b, 0x93, 0x1f, 0x3e,
  0xec, 0x14, 0x27, 0x3e, 0x3d, 0x21, 0x1c, 0x3e, 0xe0, 0xf4, 0x9e, 0x3e,
  0xfb, 0x6d, 0x97, 0xbd, 0xc4, 0x7c, 0xd0, 0x3d, 0x17, 0xa5, 0x90, 0xbd,
  0x03, 0x7e, 0x87, 0x3d, 0xb7, 0x47, 0x06, 0x3d, 0x07, 0xad, 0x9a, 0x3c,
  0xee, 0xbe, 0xac, 0x3b, 0xbb, 0x7c, 0x29, 0xbe, 0x88, 0x62, 0xe8, 0xbd,
  0xf1, 0x8f, 0x91, 0xbd, 0x7e, 0x67, 0xae, 0xbd, 0x44, 0x63, 0x90, 0x3c,
  0xb3, 0xbe, 0x48, 0x3e, 0xe7, 0xef, 0x8f, 0x3e, 0xa1, 0x88, 0x8b, 0x3d,
  0x1e, 0x23, 0x1e, 0x3c, 0xc1, 0x24, 0xd0, 0xbd, 0xb5, 0xf0, 0x72, 0x3e,
  0xe5, 0x5a, 0x52, 0x3c, 0x53, 0x10, 0x11, 0xbe, 0x2e, 0x42, 0x6d, 0x3d,
  0x0b, 0x70, 0x65, 0xbd, 0x45, 0x19, 0x9b, 0xbd, 0x8f, 0x97, 0x4d, 0xbe,
  0x56, 0x4a, 0x93, 0x3e, 0xf6, 0x0c, 0x03, 0x3e, 0xb4, 0x36, 0x86, 0xbe,
  0x41, 0x94, 0x08, 0x3b, 0xeb, 0xf4, 0x7b, 0x3d, 0xd9, 0xed, 0x5c, 0xbc,
  0x28, 0x89, 0xcc, 0xbd, 0xdf, 0x75, 0xef, 0x3d, 0x71, 0x74, 0x64, 0x3e,
  0x10, 0x9d, 0x08, 0xbe, 0x0d, 0xe6, 0x29, 0xbd, 0x88, 0xe5, 0xf1, 0xba,
  0xef, 0xbd, 0x7b, 0xbd, 0x29, 0xe8, 0x04, 0x3e, 0xee, 0x8e, 0xe2, 0x3d,
  0x6e, 0x40, 0xa9, 0x3d, 0xa4, 0xe3, 0x83, 0xbd, 0x9e, 0xac, 0x7c, 0xbd,
  0x43, 0xd3, 0x6e, 0xbe, 0xd1, 0xac, 0x09, 0xbd, 0xf7, 0xab, 0x20, 0x3e,
  0xb2, 0xfe, 0xf9, 0xbd, 0x71, 0x35, 0x1f, 0xbe, 0xea, 0x5c, 0x47, 0xbb,
  0x9f, 0x67, 0x01, 0xbe, 0x94, 0xc4, 0x2c, 0xbe, 0x95, 0x6a, 0x82, 0x3d,
  0xa1, 0x07, 0xa4, 0xbc, 0x18, 0x33, 0xb0, 0x3c, 0xe2, 0x9c, 0xd4, 0x3e,
  0xa2, 0xeb, 0xe1, 0x3b, 0xaf, 0xcd, 0x6e, 0xbd, 0x1f, 0xe9, 0xef, 0xbc,
  0x5d, 0xd0, 0x30, 0xbd, 0xee, 0xc2, 0x35, 0x3d, 0x4b, 0xb3, 0xa0, 0xbc,
  0x47, 0xbe, 0x00, 0xbd, 0x5e, 0xf3, 0x01, 0xbd, 0xdc, 0xcc, 0xf0, 0x3c,
  0xd0, 0x1c, 0x47, 0x3e, 0xca, 0xb1, 0xae, 0xbd, 0x57, 0x8d, 0x76, 0x3e,
  0xbf, 0xb8, 0x57, 0x3e, 0xdb, 0xfc, 0xe6, 0x3e, 0x7e, 0x23, 0xfd, 0x3d,
  0x51, 0x52, 0xed, 0xbd, 0xcc, 0xc2, 0x0b, 0xbd, 0xec, 0x6e, 0xed, 0x3d,
  0x00, 0x25, 0x4b, 0xbd, 0x2f, 0xe0, 0x01, 0x3d, 0xa5, 0x85, 0xf8, 0x3d,
  0x94, 0x40, 0x2f, 0x3d, 0x2f, 0x58, 0x27, 0xbc, 0x86, 0x7c, 0x9a, 0xbc,
  0xab, 0x7f, 0x84, 0xbd, 0x32, 0x4a, 0xd8, 0x3d, 0xf4, 0x43, 0x80, 0xbd,
  0x45, 0xd0, 0x41, 0x3d, 0x26, 0xde, 0xff, 0xff, 0x10, 0x00, 0x00, 0x00,
  0x0a, 0x00, 0x00, 0x00, 0x1c, 0x00, 0x00, 0x00, 0x38, 0x00, 0x00, 0x00,
  0x04, 0x00, 0x00, 0x00, 0x10, 0x00, 0x00, 0x00, 0x04, 0x00, 0x00, 0x00,
  0x01, 0x00, 0x00, 0x00, 0x08, 0x00, 0x00, 0x00, 0x1a, 0x00, 0x00, 0x00,
  0x73, 0x65, 0x71, 0x75, 0x65, 0x6e, 0x74, 0x69, 0x61, 0x6c, 0x2f, 0x63,
  0x6f, 0x6e, 0x76, 0x32, 0x64, 0x5f, 0x31, 0x2f, 0x43, 0x6f, 0x6e, 0x76,
  0x32, 0x44, 0x00, 0x00, 0x9c, 0xdd, 0xff, 0xff, 0xa6, 0xde, 0xff, 0xff,
  0x04, 0x00, 0x00, 0x00, 0x80, 0x01, 0x00, 0x00, 0x4d, 0xd2, 0xed, 0xbc,
  0x44, 0xaa, 0xd3, 0x3e, 0x5a, 0x6a, 0x94, 0xbe, 0x06, 0xa1, 0xc7, 0xbc,
  0x39, 0x68, 0x6d, 0xbd, 0xa8, 0x72, 0x8c, 0xbd, 0x65, 0x59, 0x5b, 0x3d,
  0xc5, 0xfe, 0x0f, 0xbe, 0x09, 0xfe, 0x28, 0x3d, 0xd4, 0x66, 0x48, 0x3d,
  0x7c, 0x6e, 0x82, 0xbe, 0x38, 0xb9, 0x3d, 0x3e, 0x18, 0xed, 0x3d, 0x3e,
  0x10, 0xbf, 0x56, 0x3e, 0x95, 0x57, 0x51, 0x3e, 0xc9, 0xcf, 0x9d, 0xbd,
  0x1f, 0xa1, 0xbb, 0x3d, 0x5c, 0x78, 0xbb, 0x3d, 0xd2, 0x8b, 0x79, 0xbd,
  0xe4, 0xf5, 0x52, 0xbe, 0xc5, 0x30, 0x31, 0xbe, 0xf3, 0x63, 0xc2, 0xbd,
  0x61, 0x0a, 0x48, 0xbe, 0x24, 0xdc, 0x61, 0xbe, 0x2f, 0x0c, 0x21, 0x3f,
  0xb3, 0x6e, 0x33, 0xbe, 0xcb, 0xa0, 0x80, 0x3d, 0xf6, 0xaa, 0xa6, 0xbd,
  0x4f, 0xb6, 0x20, 0x3e, 0x90, 0x14, 0x17, 0xbe, 0x3a, 0x0e, 0x7c, 0x3e,
  0x0b, 0xb5, 0x63, 0xbd, 0x8d, 0x1a, 0x12, 0x3d, 0xab, 0xb3, 0x4c, 0xbe,
  0x2d, 0xde, 0x79, 0x3e, 0x17, 0xfa, 0xf9, 0xbd, 0x75, 0xec, 0xc6, 0x3d,
  0x44, 0x2f, 0x48, 0x3c, 0xd6, 0xaa, 0x92, 0x3c, 0x5b, 0x46, 0xe7, 0x3e,
  0x96, 0x7f, 0x14, 0x3e, 0x6d, 0xba, 0x79, 0x3e, 0x07, 0x54, 0xdc, 0xbd,
  0x38, 0xf9, 0x21, 0x3e, 0xfd, 0x1c, 0x2e, 0xbd, 0x5b, 0x31, 0x98, 0xbe,
  0xc5, 0x8f, 0xa2, 0xbe, 0x39, 0x3a, 0x58, 0xbe, 0xff, 0x6e, 0x4d, 0xbe,
  0xf5, 0x4e, 0x58, 0xbe, 0x21, 0xf4, 0x96, 0x3d, 0x10, 0x79, 0xb7, 0x3c,
  0x32, 0x0e, 0xea, 0x3d, 0xed, 0x8a, 0x14, 0x3e, 0x3b, 0x5e, 0x6c, 0x3e,
  0x8b, 0x9a, 0x2c, 0xbe, 0x91, 0xaa, 0x56, 0xbd, 0x21, 0xca, 0xaa, 0x3d,
  0xd9, 0xe9, 0x10, 0x3e, 0xef, 0xce, 0x63, 0xbe, 0xce, 0xe7, 0x78, 0xbe,
  0xb2, 0x9e, 0x54, 0xbe, 0xfd, 0x68, 0x3c, 0xbd, 0xe2, 0xe2, 0x7b, 0x3c,
  0xa9, 0x07, 0xa9, 0xbe, 0xf9, 0xe8, 0xfb, 0x3c, 0x0f, 0x5b, 0x22, 0x3e,
  0x6a, 0x4c, 0x80, 0x3e, 0xca, 0x22, 0x73, 0x3d, 0xf9, 0x50, 0x10, 0x3e,
  0xc1, 0x51, 0x9d, 0x3e, 0x8c, 0xa1, 0x0a, 0x3c, 0x60, 0x16, 0xd6, 0x3d,
  0x8f, 0x1f, 0x67, 0xbe, 0xf5, 0xbd, 0x5b, 0x3d, 0xcc, 0x85, 0xd3, 0x3d,
  0xab, 0x55, 0x25, 0xbe, 0x5f, 0x06, 0x06, 0x3e, 0x6c, 0xec, 0x23, 0xbe,
  0x80, 0xdf, 0xc6, 0xba, 0xf7, 0x30, 0xde, 0x3d, 0x04, 0xb4, 0x32, 0xbe,
  0x8c, 0x84, 0x66, 0x3e, 0x37, 0xaf, 0x00, 0xbd, 0x1a, 0xfd, 0xf7, 0xbb,
  0x48, 0x00, 0x5e, 0xba, 0x21, 0xa7, 0x58, 0xbd, 0x91, 0xe4, 0x47, 0xbe,
  0x66, 0x7a, 0x80, 0xbe, 0xb4, 0x8c, 0xf2, 0xbe, 0x09, 0x34, 0x1f, 0x3e,
  0xef, 0xd4, 0x26, 0x3e, 0x70, 0xec, 0x84, 0x3e, 0xa8, 0xce, 0x72, 0x3d,
  0xb6, 0x7a, 0x36, 0x3e, 0x6b, 0xad, 0x90, 0x3e, 0xfe, 0xdf, 0xff, 0xff,
  0x10, 0x00, 0x00, 0x00, 0x09, 0x00, 0x00, 0x00, 0x1c, 0x00, 0x00, 0x00,
  0x38, 0x00, 0x00, 0x00, 0x04, 0x00, 0x00, 0x00, 0x08, 0x00, 0x00, 0x00,
  0x04, 0x00, 0x00, 0x00, 0x03, 0x00, 0x00, 0x00, 0x01, 0x00, 0x00, 0x00,
  0x18, 0x00, 0x00, 0x00, 0x73, 0x65, 0x71, 0x75, 0x65, 0x6e, 0x74, 0x69,
  0x61, 0x6c, 0x2f, 0x63, 0x6f, 0x6e, 0x76, 0x32, 0x64, 0x2f, 0x43, 0x6f,
  0x6e, 0x76, 0x32, 0x44, 0x00, 0x00, 0x00, 0x00, 0x74, 0xdf, 0xff, 0xff,
  0x7e, 0xe0, 0xff, 0xff, 0x04, 0x00, 0x00, 0x00, 0xc0, 0x00, 0x00, 0x00,
  0x22, 0xee, 0xd5, 0x3e, 0xe2, 0xb1, 0x1b, 0x3e, 0xbe, 0x20, 0x0f, 0x3f,
  0xe0, 0x0c, 0x8e, 0x3e, 0xbf, 0xad, 0x36, 0xbd, 0x68, 0x05, 0xc1, 0xbe,
  0x72, 0x00, 0xd2, 0xbe, 0x9c, 0x5f, 0xd2, 0x3d, 0xf4, 0xb3, 0x0b, 0x3e,
  0x0a, 0xf6, 0x9b, 0xbc, 0x9e, 0xec, 0x06, 0xbc, 0x72, 0xba, 0xa0, 0x3e,
  0xb2, 0x9a, 0x89, 0xbc, 0x0e, 0xe0, 0x17, 0xbe, 0x09, 0xc6, 0x9b, 0xbd,
  0xc4, 0x5a, 0x6a, 0xbe, 0xef, 0x6b, 0xc1, 0x3e, 0xba, 0x78, 0x6e, 0x3d,
  0xdb, 0xce, 0x5b, 0xbe, 0xe0, 0x2e, 0x8c, 0x3e, 0xd3, 0xae, 0x1e, 0xbe,
  0x8e, 0xc7, 0xd7, 0xbe, 0x5b, 0x65, 0xaa, 0xbe, 0x0c, 0x71, 0xc5, 0x3d,
  0x21, 0xaf, 0x77, 0xbe, 0x57, 0xd0, 0x03, 0xbd, 0x06, 0x13, 0xde, 0xbd,
  0x54, 0x39, 0x5f, 0x3e, 0x53, 0x35, 0x4b, 0x3d, 0x96, 0x45, 0x81, 0xbe,
  0x60, 0x6d, 0x8c, 0x3d, 0x28, 0xff, 0x56, 0xbe, 0xa7, 0xba, 0xb0, 0x3e,
  0x65, 0x80, 0x3f, 0x3e, 0x90, 0x9b, 0x06, 0x3e, 0xd7, 0x59, 0xae, 0x3e,
  0x3d, 0x4c, 0x10, 0xbe, 0x27, 0x7a, 0xf6, 0xbe, 0x2e, 0xd9, 0xea, 0xbe,
  0x26, 0xd2, 0x19, 0x3e, 0x07, 0x53, 0xff, 0x3e, 0x2e, 0x6f, 0x99, 0x3d,
  0xb3, 0x25, 0x87, 0x3d, 0x97, 0x4e, 0x8a, 0x3e, 0xae, 0x32, 0xf9, 0xbc,
  0x17, 0x97, 0x05, 0x3c, 0xfa, 0x44, 0x4c, 0x3e, 0x2d, 0x52, 0x1e, 0xbe,
  0x16, 0xe1, 0xff, 0xff, 0x10, 0x00, 0x00, 0x00, 0x08, 0x00, 0x00, 0x00,
  0x14, 0x00, 0x00, 0x00, 0x30, 0x00, 0x00, 0x00, 0x02, 0x00, 0x00, 0x00,
  0x03, 0x00, 0x00, 0x00, 0x10, 0x00, 0x00, 0x00, 0x19, 0x00, 0x00, 0x00,
  0x73, 0x65, 0x71, 0x75, 0x65, 0x6e, 0x74, 0x69, 0x61, 0x6c, 0x2f, 0x64,
  0x65, 0x6e, 0x73, 0x65, 0x5f, 0x31, 0x2f, 0x4d, 0x61, 0x74, 0x4d, 0x75,
  0x6c, 0x00, 0x00, 0x00, 0x84, 0xe0, 0xff, 0xff, 0x8e, 0xe1, 0xff, 0xff,
  0x04, 0x00, 0x00, 0x00, 0x00, 0x1c, 0x00, 0x00, 0xe3, 0x29, 0xe9, 0xbd,
  0xfe, 0x14, 0x9b, 0xbe, 0x42, 0x43, 0xd3, 0xbd, 0x97, 0x5f, 0xd1, 0xbc,
  0xf0, 0x31, 0x67, 0x3e, 0xf4, 0xe6, 0x71, 0x3e, 0x81, 0x58, 0xa7, 0x3e,
  0xf7, 0x46, 0x8f, 0x3e, 0x2f, 0x03, 0xb9, 0xbd, 0x29, 0xa7, 0x44, 0xbd,
  0x5c, 0x34, 0xe4, 0x3d, 0xf6, 0x2f, 0x02, 0x3f, 0xd1, 0xc0, 0x45, 0xbe,
  0x26, 0x80, 0x0e, 0xbf, 0x74, 0x5d, 0x80, 0x3e, 0xe0, 0xcc, 0x2c, 0x3d,
  0x13, 0xd5, 0x5f, 0xbd, 0x73, 0xf5, 0xee, 0xbd, 0x2b, 0x49, 0x48, 0xbd,
  0x88, 0x9a, 0xc5, 0x3a, 0x85, 0x87, 0x2b, 0xbd, 0xbd, 0x64, 0x1b, 0xbe,
  0x96, 0xc5, 0x1f, 0x3e, 0x76, 0x99, 0x6b, 0x3e, 0x54, 0x59, 0x01, 0xbe,
  0x19, 0x79, 0xed, 0x3d, 0x68, 0x43, 0xdd, 0x3d, 0x65, 0x66, 0x1e, 0x3e,
  0xf7, 0x42, 0x33, 0xbe, 0x75, 0xc5, 0x92, 0xbe, 0xe5, 0x9c, 0xff, 0x3d,
  0x26, 0x3e, 0xa2, 0xbd, 0xda, 0x75, 0x7a, 0x3e, 0x78, 0x96, 0x27, 0x3d,
  0x1d, 0xad, 0x91, 0xbd, 0xcc, 0xf0, 0x6a, 0xbd, 0x6c, 0x10, 0x2b, 0xbe,
  0x32, 0xff, 0x0e, 0x3d, 0xd7, 0xca, 0xc8, 0x3e, 0x77, 0x73, 0xd3, 0x3e,
  0x16, 0x8f, 0xa1, 0xbe, 0x7b, 0x82, 0xd8, 0x3e, 0x6d, 0xa7, 0x68, 0x3e,
  0x49, 0xc7, 0x9e, 0xbd, 0xe5, 0x59, 0x76, 0x3e, 0x6c, 0x73, 0x01, 0x3e,
  0xf9, 0x78, 0x2a, 0xbe, 0x39, 0xd0, 0x8a, 0x3c, 0xc2, 0xe6, 0x87, 0xbd,
  0xf1, 0x94, 0x1c, 0xbd, 0x3b, 0x3b, 0x1d, 0xbe, 0x47, 0x43, 0x56, 0x3e,
  0x5d, 0x29, 0x45, 0xbe, 0x4d, 0x51, 0x12, 0xbe, 0xf5, 0x55, 0xaa, 0x3e,
  0x80, 0xec, 0xd2, 0x3e, 0x9e, 0x98, 0x03, 0x3e, 0x9b, 0x56, 0xa8, 0x3e,
  0xa3, 0x78, 0xb4, 0x3e, 0xc2, 0x4e, 0xa5, 0x3e, 0xa8, 0x3f, 0x19, 0x3e,
  0x0a, 0xc3, 0xf9, 0xbd, 0x9a, 0xcb, 0x39, 0xbe, 0xed, 0xa0, 0xc6, 0x3c,
  0x79, 0x42, 0xf8, 0xbd, 0x69, 0xad, 0x83, 0xbe, 0x6d, 0xf7, 0x49, 0xbe,
  0x40, 0xc3, 0xb7, 0x3d, 0xf4, 0x33, 0x5e, 0xbd, 0x9e, 0x5c, 0x8e, 0x3d,
  0xd0, 0x3e, 0xc8, 0x3e, 0x8d, 0xd8, 0x00, 0x3f, 0xbf, 0x2b, 0x16, 0xbe,
  0x8c, 0xdf, 0xc8, 0x3e, 0x33, 0x83, 0x34, 0x3e, 0x38, 0x5b, 0x3f, 0x3e,
  0x08, 0x8f, 0x92, 0xbe, 0xbb, 0xc6, 0xfd, 0xbd, 0xa0, 0xf3, 0x92, 0x3d,
  0x97, 0x19, 0x30, 0xbc, 0xd2, 0x3d, 0x9a, 0xbe, 0x70, 0x7f, 0x33, 0x3c,
  0xd4, 0xac, 0x52, 0xbe, 0x13, 0xd8, 0x29, 0xbd, 0x89, 0x65, 0xb8, 0xbe,
  0xa1, 0x59, 0x7f, 0xbe, 0xd1, 0x6d, 0x5d, 0xbd, 0xd3, 0xb6, 0xd9, 0x3e,
  0xef, 0x94, 0x3f, 0xbe, 0x87, 0x76, 0x70, 0x3e, 0x5a, 0x77, 0x90, 0xbd,
  0x61, 0xb8, 0x2d, 0xbd, 0x46, 0x1f, 0xa9, 0xbc, 0x52, 0x47, 0x4f, 0x3d,
  0xea, 0x5d, 0x30, 0xbe, 0xc0, 0x7b, 0x7a, 0xbd, 0xa4, 0x4d, 0x41, 0xbe,
  0xd7, 0xf8, 0xa1, 0xbe, 0xbb, 0x02, 0x18, 0xbe, 0x6f, 0xad, 0xb5, 0x3d,
  0x9d, 0xbe, 0x83, 0xbd, 0x75, 0xe3, 0x33, 0xbe, 0x2b, 0xf0, 0xbb, 0x3d,
  0xdc, 0x93, 0x19, 0xbe, 0xc4, 0x92, 0x6c, 0xbb, 0x70, 0xf6, 0x87, 0x3e,
  0x82, 0x48, 0x86, 0xbd, 0xe0, 0xca, 0xa0, 0xbd, 0x6d, 0x10, 0x9c, 0xbe,
  0x77, 0xb2, 0xa6, 0xbd, 0x35, 0x1f, 0x27, 0xbe, 0xf0, 0xc1, 0xd9, 0x3c,
  0xe2, 0xc9, 0xdf, 0xbc, 0x7c, 0xa1, 0xc6, 0xbd, 0xdf, 0x1f, 0x22, 0xbe,
  0x1e, 0xdf, 0x87, 0x3d, 0xe0, 0x52, 0x5e, 0x3d, 0xa1, 0x3e, 0xd9, 0x3d,
  0x1c, 0x93, 0x31, 0xbd, 0xc3, 0x01, 0x88, 0x3c, 0x9e, 0x4b, 0xaf, 0xbd,
  0xd5, 0x12, 0x24, 0x3e, 0xe8, 0x5c, 0xd8, 0xbd, 0x0e, 0x38, 0xe5, 0x3d,
  0x5f, 0x55, 0xbb, 0xbe, 0x82, 0x46, 0x8c, 0xbc, 0xa3, 0x7b, 0x14, 0x3e,
  0x2d, 0xd0, 0x5c, 0xbe, 0x96, 0xe0, 0x85, 0x3d, 0x52, 0x2f, 0xb7, 0x3d,
  0x0e, 0x34, 0xba, 0xbd, 0x4f, 0x80, 0x5a, 0x3e, 0x03, 0x27, 0xab, 0x3d,
  0x05, 0x9d, 0x03, 0xbd, 0x42, 0x57, 0x7f, 0xbd, 0x8d, 0x62, 0xc5, 0x3c,
  0x41, 0x82, 0x83, 0xbd, 0xb8, 0xe4, 0x04, 0xbe, 0xf9, 0x57, 0x24, 0xbc,
  0x41, 0x9a, 0x95, 0xbd, 0x21, 0x52, 0x89, 0x3e, 0x44, 0x30, 0x93, 0x3e,
  0xcb, 0x5d, 0xd0, 0xbc, 0x6b, 0x1e, 0x57, 0xbe, 0x59, 0x80, 0x7d, 0xbe,
  0x51, 0x85, 0x48, 0xbe, 0x6b, 0xb6, 0xe2, 0xbe, 0xaf, 0xf6, 0xd4, 0xbc,
  0xcb, 0x2f, 0x08, 0x3f, 0x51, 0xa0, 0x2f, 0xbd, 0x50, 0xa8, 0xa7, 0xbc,
  0x17, 0xa5, 0xf4, 0x3d, 0xcf, 0x85, 0xe2, 0x3c, 0x96, 0x0b, 0x7f, 0xbe,
  0xf3, 0x9f, 0xaf, 0x3d, 0x70, 0xc8, 0x97, 0x3e, 0xca, 0xc5, 0xb0, 0xbd,
  0x89, 0x51, 0x83, 0x3e, 0xb5, 0xcf, 0x76, 0x3e, 0x82, 0x23, 0x19, 0xbe,
  0x80, 0xe6, 0x9f, 0xbd, 0x1e, 0x16, 0x1e, 0xbd, 0x56, 0xe9, 0x78, 0xbd,
  0xc5, 0x62, 0x41, 0xbe, 0x09, 0x7e, 0x73, 0x3b, 0x21, 0x47, 0x9c, 0x3c,
  0xfa, 0x11, 0xae, 0xbd, 0x7b, 0x6d, 0x97, 0xbe, 0x52, 0x3d, 0x32, 0x3c,
  0x33, 0x7f, 0x1f, 0xbe, 0x9a, 0x86, 0xff, 0x3b, 0x78, 0xb7, 0x00, 0x3e,
  0xd4, 0xcd, 0x7f, 0x3c, 0xc3, 0x06, 0xb5, 0xbc, 0x69, 0x0e, 0xa7, 0xbc,
  0x84, 0x59, 0x46, 0xbe, 0xac, 0xa1, 0x4a, 0xbe, 0x8f, 0x29, 0xda, 0x3d,
  0x8b, 0x7b, 0x4e, 0xbe, 0xe3, 0x98, 0xfc, 0x3c, 0xf4, 0xe2, 0x85, 0x3e,
  0x1e, 0xf4, 0x6b, 0xbd, 0x13, 0x01, 0x05, 0x3d, 0x19, 0xb0, 0xb5, 0x3d,
  0xf4, 0x39, 0x32, 0x3d, 0x67, 0x98, 0x02, 0x3d, 0x3a, 0x39, 0x8d, 0xbd,
  0x5e, 0x13, 0x56, 0x3d, 0x4b, 0xfe, 0x90, 0xbd, 0x1f, 0x34, 0x6a, 0x3d,
  0x22, 0x9e, 0x63, 0x3e, 0x5a, 0x1e, 0xf4, 0xbd, 0x9d, 0xfc, 0x05, 0xbc,
  0x68, 0x17, 0x99, 0xbd, 0x54, 0xab, 0xb1, 0xbd, 0x43, 0x65, 0x22, 0xbd,
  0x16, 0x04, 0x93, 0x3d, 0xc7, 0x0e, 0xdf, 0xbd, 0x76, 0x06, 0x6c, 0x3e,
  0xf2, 0xf9, 0xf8, 0xbc, 0xcc, 0x14, 0x07, 0xbe, 0x06, 0x60, 0x4d, 0xbe,
  0x54, 0x1a, 0xa4, 0xbd, 0x3a, 0x33, 0xb5, 0x3e, 0x59, 0x5d, 0x5d, 0x3d,
  0x34, 0x1f, 0x1d, 0xbe, 0x90, 0x5f, 0x05, 0xba, 0x48, 0xcf, 0x4d, 0xbe,
  0x3d, 0x2e, 0xec, 0xbd, 0x48, 0x8b, 0xb2, 0xbd, 0xfa, 0xe3, 0x3f, 0xbe,
  0xd7, 0x51, 0xad, 0xbd, 0xea, 0xf6, 0x6d, 0xbe, 0x3b, 0xc2, 0x94, 0x3e,
  0xd5, 0xf7, 0x35, 0xbc, 0xb6, 0x80, 0x40, 0xbe, 0x80, 0x48, 0x4a, 0x3d,
  0x35, 0x19, 0xa0, 0xbc, 0xc8, 0xce, 0x1b, 0xbe, 0x1d, 0xe4, 0x01, 0x3e,
  0xc0, 0xb9, 0xe7, 0x3d, 0x79, 0x0b, 0x20, 0xbe, 0xf4, 0xb1, 0xff, 0xbd,
  0x06, 0x32, 0xc9, 0xbd, 0xb8, 0x76, 0x05, 0xbe, 0xe8, 0x33, 0xb2, 0xbd,
  0x6a, 0x8d, 0x08, 0xbe, 0xf6, 0x46, 0x43, 0xbd, 0xfd, 0x96, 0xd2, 0xbc,
  0xc8, 0x9c, 0x79, 0xbd, 0xe4, 0xbc, 0xac, 0x3e, 0xad, 0xc8, 0x6b, 0x3e,
  0x2b, 0x84, 0x35, 0xbd, 0x58, 0xba, 0x34, 0xbd, 0xc3, 0x8d, 0x00, 0x3d,
  0x2d, 0xbb, 0x9a, 0x3e, 0x9d, 0xae, 0x2a, 0xbe, 0x52, 0xa1, 0x66, 0xbe,
  0x19, 0x71, 0xe1, 0x3d, 0x5d, 0x9a, 0x22, 0xbe, 0x1a, 0x36, 0x80, 0x3e,
  0xab, 0x05, 0x96, 0x3e, 0x79, 0x4c, 0x32, 0x3d, 0x5d, 0xb0, 0x72, 0xbe,
  0xea, 0xc3, 0x55, 0xbe, 0x19, 0x97, 0x75, 0x3b, 0xb2, 0xb8, 0x46, 0x3f,
  0x97, 0x14, 0xf6, 0x3d, 0x8a, 0x20, 0x85, 0xbd, 0x07, 0xa9, 0x16, 0x3e,
  0x00, 0x62, 0x36, 0xbe, 0x60, 0x2d, 0x9f, 0xbb, 0x3f, 0x51, 0xb2, 0x39,
  0x17, 0xf4, 0xd0, 0xbd, 0x93, 0x4b, 0x25, 0x3e, 0xbf, 0x50, 0x36, 0xbe,
  0x13, 0x95, 0xe2, 0x3c, 0x1a, 0x8c, 0x36, 0x3e, 0xc2, 0x88, 0x3e, 0x3d,
  0x7d, 0x7a, 0xd9, 0xbc, 0x74, 0xc1, 0x8d, 0x3d, 0x2c, 0xe2, 0x1b, 0xbd,
  0x5c, 0x0a, 0xf2, 0x3e, 0xdc, 0x82, 0x1a, 0xbe, 0x55, 0xc6, 0x3c, 0xbe,
  0x00, 0x26, 0x7f, 0x3e, 0xa0, 0xe4, 0x82, 0x3e, 0xe0, 0x2e, 0xc3, 0x3c,
  0x0f, 0xb4, 0x57, 0x3d, 0xee, 0x63, 0xb6, 0x3d, 0x9f, 0xdd, 0xbd, 0xbe,
  0xa7, 0x58, 0x1c, 0xbe, 0xe0, 0xeb, 0xd1, 0x3d, 0x97, 0xe7, 0xda, 0xbd,
  0xa3, 0x95, 0xd3, 0xbd, 0xe5, 0xfa, 0x62, 0x3d, 0x89, 0x39, 0xec, 0xbd,
  0xe4, 0xec, 0xad, 0xbd, 0x0e, 0xf8, 0x94, 0x3f, 0x31, 0x3f, 0x5a, 0x3d,
  0x6d, 0x7e, 0x2d, 0xbe, 0x0d, 0x6d, 0x73, 0x3e, 0x0a, 0xfe, 0x55, 0x3e,
  0x43, 0x69, 0x29, 0xbe, 0xab, 0xc5, 0xd7, 0x3d, 0x27, 0x07, 0x93, 0x3d,
  0x01, 0x1b, 0xce, 0xbe, 0x3b, 0x71, 0x20, 0xbd, 0x9d, 0x17, 0x9d, 0xbc,
  0xee, 0x6a, 0x56, 0xbe, 0xa5, 0x48, 0x6f, 0xbe, 0x59, 0x9c, 0xaa, 0x3c,
  0x7a, 0x87, 0x1e, 0x3b, 0x29, 0x82, 0x4e, 0xbe, 0x14, 0x11, 0x54, 0x3f,
  0x04, 0x14, 0x9c, 0x3c, 0x57, 0x63, 0x1b, 0xbe, 0x72, 0x35, 0xe4, 0x3d,
  0x2a, 0xca, 0xa7, 0xbd, 0x7e, 0xeb, 0x16, 0x3d, 0x57, 0x99, 0x89, 0x3e,
  0x3c, 0xca, 0x27, 0xbe, 0x68, 0x91, 0x9b, 0xbe, 0x54, 0xce, 0x47, 0xbd,
  0x19, 0xfd, 0xb0, 0x3d, 0xcf, 0x0a, 0x84, 0x3d, 0x94, 0xf1, 0x51, 0xbe,
  0xdf, 0xa4, 0x8d, 0xbe, 0x95, 0x5e, 0x65, 0xbe, 0x96, 0x71, 0x00, 0x3e,
  0xaf, 0xab, 0x14, 0x3f, 0xfb, 0x67, 0x8e, 0xbe, 0x4d, 0x43, 0x63, 0xbe,
  0x6c, 0xa0, 0x03, 0xbd, 0x60, 0xed, 0x5b, 0xbe, 0x2e, 0xf6, 0xa0, 0x3d,
  0x66, 0x48, 0x73, 0xbd, 0xaa, 0x3a, 0x60, 0xbe, 0xf9, 0xc0, 0xce, 0xbd,
  0x80, 0x37, 0xb0, 0x3c, 0xf6, 0x5e, 0x4e, 0xbe, 0xe6, 0xa9, 0x24, 0xbe,
  0x36, 0xf2, 0x11, 0xbe, 0x52, 0xe1, 0xb3, 0xbd, 0xd4, 0x5a, 0x40, 0xbe,
  0x1f, 0x9e, 0x87, 0x3d, 0xf0, 0xb1, 0x8c, 0x3e, 0x55, 0xf3, 0xa0, 0xbe,
  0x64, 0x54, 0x46, 0x3d, 0x29, 0xc6, 0x87, 0x3d, 0x4f, 0x93, 0xac, 0xbe,
  0x29, 0x22, 0x95, 0xbd, 0xc1, 0xca, 0x88, 0x3c, 0x71, 0xfb, 0xbf, 0x3d,
  0xf8, 0x47, 0xa6, 0xbe, 0xa5, 0xd8, 0x2a, 0xbe, 0x56, 0x83, 0x05, 0xbd,
  0x90, 0x06, 0xbb, 0xbd, 0x41, 0x3b, 0xe5, 0xbd, 0x23, 0x32, 0xa8, 0x3e,
  0x7b, 0xc9, 0x04, 0xbf, 0xb5, 0xd2, 0x74, 0x3e, 0x51, 0x45, 0x98, 0xbd,
  0x01, 0x04, 0x13, 0xbe, 0x0f, 0x8b, 0xa5, 0xbe, 0xd9, 0x39, 0x0e, 0xbe,
  0xdd, 0x5a, 0xdf, 0xbe, 0xc1, 0x6d, 0x9e, 0xbe, 0x56, 0x7b, 0xdf, 0x3c,
  0x1c, 0x97, 0x3e, 0x3c, 0x3a, 0x5d, 0x62, 0xbd, 0x82, 0x45, 0x9b, 0xbd,
  0x18, 0xdb, 0x00, 0x3d, 0xb6, 0xc1, 0x98, 0x3c, 0x35, 0xbe, 0xd2, 0x3d,
  0x41, 0xbf, 0x8c, 0x3d, 0x1b, 0x71, 0x5a, 0x3d, 0x9b, 0xf6, 0xb8, 0xbd,
  0x51, 0x5a, 0xb6, 0xbe, 0x7a, 0x74, 0x1c, 0xbf, 0x52, 0x4b, 0xea, 0x3e,
  0x9f, 0xb1, 0x8a, 0xbe, 0x1c, 0x59, 0x3e, 0xbe, 0x27, 0x53, 0x54, 0x3e,
  0x94, 0x9e, 0x77, 0x3d, 0xe5, 0x6b, 0x1b, 0x3e, 0x08, 0x5b, 0x60, 0xbd,
  0x0e, 0xbc, 0x9b, 0x3d, 0x2f, 0xff, 0x34, 0x3e, 0xb7, 0x71, 0xbc, 0x3d,
  0x34, 0x44, 0x85, 0x3e, 0x1a, 0x06, 0xe2, 0xb8, 0x85, 0xf3, 0xf8, 0x3e,
  0xaf, 0xac, 0xb0, 0x3e, 0x26, 0x37, 0x96, 0xbe, 0xec, 0x40, 0x2a, 0xbe,
  0xf6, 0x9f, 0x4b, 0x3e, 0x03, 0x0a, 0xc7, 0xbd, 0x8f, 0xb8, 0x13, 0xbd,
  0x94, 0xd3, 0xb5, 0xbd, 0x18, 0xe3, 0xa8, 0x3c, 0x54, 0x95, 0x83, 0x3b,
  0xb4, 0x60, 0xdb, 0x3d, 0x62, 0x2f, 0xc2, 0x3d, 0x5b, 0x71, 0x15, 0x3d,
  0x99, 0x35, 0xa5, 0x3c, 0x80, 0xa3, 0x6d, 0x3e, 0xcc, 0xee, 0x2a, 0x3d,
  0x67, 0xf3, 0x2a, 0xbc, 0x2a, 0x0a, 0x53, 0xbd, 0xb8, 0xc6, 0x0a, 0xbd,
  0x31, 0x6d, 0x40, 0xbc, 0x78, 0xa6, 0xc4, 0xbd, 0x7e, 0x44, 0xfa, 0xbc,
  0x76, 0x3d, 0xf8, 0x3c, 0x90, 0xd1, 0xca, 0xbd, 0x47, 0x5e, 0xab, 0x3d,
  0xb4, 0xd6, 0x85, 0x3b, 0xcc, 0xb9, 0x59, 0x3d, 0xe7, 0x58, 0xcc, 0x3d,
  0xed, 0x81, 0x18, 0xbe, 0xb1, 0xb9, 0xc0, 0xbd, 0x6a, 0x6b, 0x0a, 0x3e,
  0x82, 0x8f, 0x4e, 0xbc, 0xba, 0x22, 0x0a, 0x3d, 0xe2, 0x2f, 0x54, 0xbe,
  0xc1, 0x5a, 0x09, 0xbe, 0x31, 0x19, 0xe0, 0xbe, 0xf6, 0x87, 0x28, 0xbe,
  0x32, 0xcb, 0x73, 0xbe, 0x6c, 0x87, 0x89, 0xbd, 0x74, 0x38, 0x3c, 0xbe,
  0x9a, 0x5a, 0x48, 0xbe, 0x3b, 0x6c, 0x47, 0x3d, 0x55, 0x48, 0x93, 0xbd,
  0x89, 0x58, 0xc4, 0x3d, 0x47, 0x9f, 0x69, 0xbe, 0xa5, 0xc6, 0x36, 0xbe,
  0xe4, 0xc5, 0x02, 0x3d, 0x71, 0x29, 0x2d, 0xbe, 0xac, 0xac, 0x33, 0x3c,
  0x3b, 0xbb, 0x97, 0xbe, 0x70, 0xcb, 0xca, 0xbe, 0xdb, 0x54, 0xd0, 0xbe,
  0xee, 0x71, 0x2d, 0xbe, 0xe4, 0xb2, 0x07, 0xbf, 0x0c, 0x37, 0x81, 0xbe,
  0x06, 0xcc, 0x14, 0xbe, 0x42, 0xd6, 0x66, 0xbe, 0xe8, 0xe5, 0xa2, 0xbc,
  0xf6, 0x1b, 0x8e, 0x3d, 0xca, 0x98, 0x5e, 0x3d, 0xc0, 0xc9, 0x61, 0xbe,
  0x94, 0xbf, 0x29, 0xbe, 0x73, 0x46, 0xa7, 0x3c, 0x52, 0x87, 0x94, 0x3d,
  0x5a, 0x99, 0x9d, 0x3d, 0x85, 0x5b, 0x62, 0xbe, 0x4e, 0x8f, 0xea, 0x3c,
  0x73, 0x28, 0x16, 0xbe, 0x99, 0xcc, 0x4f, 0xbe, 0xba, 0x71, 0x70, 0xbe,
  0x87, 0x1a, 0x65, 0xbd, 0x63, 0xd3, 0xe6, 0xbc, 0x1d, 0x71, 0x24, 0xbe,
  0x0e, 0x34, 0x77, 0x3b, 0x45, 0x24, 0xe0, 0x3b, 0x0d, 0xfe, 0x96, 0x3c,
  0x63, 0x10, 0x32, 0x3b, 0xf0, 0x91, 0x95, 0xbd, 0x0a, 0xc8, 0xf5, 0xbd,
  0xa0, 0x0c, 0x7f, 0x3d, 0x49, 0xee, 0x2a, 0xbe, 0xe5, 0x61, 0x2a, 0xbd,
  0x64, 0xe8, 0x7c, 0xbe, 0xd4, 0x12, 0x83, 0x3d, 0x88, 0x89, 0x0f, 0xbe,
  0xeb, 0x39, 0x49, 0xbe, 0xbc, 0xd9, 0x85, 0xbe, 0x7a, 0xb1, 0x19, 0xbe,
  0xf3, 0x70, 0x0c, 0xbe, 0x17, 0x5b, 0x10, 0xbe, 0xca, 0xcd, 0x56, 0xbe,
  0x36, 0xe1, 0x4b, 0xbe, 0xc4, 0x1e, 0x3b, 0xbe, 0x87, 0x06, 0x6b, 0xbe,
  0xde, 0x23, 0x97, 0xbe, 0x5b, 0x85, 0x7b, 0xbe, 0xc1, 0xb3, 0x2f, 0xbe,
  0xd1, 0x34, 0x2f, 0xbe, 0x44, 0x82, 0x7d, 0xbe, 0xcb, 0xe5, 0xde, 0x3c,
  0x52, 0x84, 0x57, 0x3b, 0xc3, 0x80, 0x8d, 0xbe, 0x43, 0xe7, 0x86, 0x3c,
  0xdb, 0x49, 0xa2, 0xbd, 0x76, 0x51, 0x07, 0x3e, 0x0e, 0x59, 0x1d, 0xbd,
  0x39, 0xb2, 0x44, 0xbe, 0x62, 0xaa, 0x48, 0xbe, 0xb8, 0x97, 0x87, 0x3b,
  0x50, 0xcc, 0x3f, 0xbe, 0xd3, 0x10, 0x10, 0xbe, 0x9d, 0x8e, 0x8a, 0xbd,
  0xa6, 0xdb, 0x2f, 0xbd, 0x77, 0xc0, 0x26, 0xbe, 0xd5, 0x60, 0x03, 0x3d,
  0xe8, 0xe9, 0x29, 0x3e, 0x51, 0xc4, 0x05, 0x3e, 0x0c, 0x78, 0x95, 0x3d,
  0x4c, 0x91, 0xc9, 0x3c, 0xfd, 0xa6, 0xa3, 0x3c, 0xb9, 0xff, 0xcb, 0xbd,
  0x97, 0x1b, 0x43, 0xbd, 0x22, 0xe3, 0x9d, 0xbe, 0xc0, 0xba, 0xac, 0xbe,
  0x21, 0x9a, 0x0e, 0x3e, 0x6e, 0xfd, 0xbf, 0x3d, 0x7e, 0x81, 0x8e, 0x3d,
  0x40, 0x17, 0x07, 0xbe, 0x23, 0x91, 0xdf, 0xbd, 0x5f, 0xa4, 0xce, 0x3c,
  0x14, 0x71, 0xa1, 0xbd, 0xe0, 0xba, 0xc4, 0xbc, 0x2c, 0x55, 0x23, 0x3e,
  0xc1, 0x36, 0x1a, 0xbe, 0x5f, 0xf5, 0xec, 0x3a, 0x04, 0x9a, 0x37, 0x3d,
  0xe0, 0xe9, 0xfa, 0x3d, 0xb7, 0xf9, 0x2b, 0x3e, 0x7f, 0xb8, 0x09, 0xbe,
  0xda, 0xab, 0xae, 0xbe, 0x28, 0x74, 0x35, 0xbe, 0xb7, 0xea, 0xd6, 0x3c,
  0x4e, 0x1b, 0x9d, 0x3d, 0xcc, 0x71, 0xb2, 0xbd, 0xd2, 0x46, 0x36, 0x3e,
  0xbf, 0xdc, 0xb8, 0xbc, 0x62, 0x1a, 0x3f, 0xbe, 0xa3, 0x3c, 0x36, 0xbe,
  0x3c, 0x25, 0x8d, 0xbd, 0xee, 0x13, 0x8b, 0xbe, 0xad, 0x65, 0x35, 0x3d,
  0x7e, 0xac, 0x38, 0xbe, 0xb5, 0x15, 0x48, 0xbc, 0xdf, 0x93, 0x4d, 0xbe,
  0xd5, 0x49, 0x70, 0xbb, 0xdd, 0x63, 0x81, 0xbe, 0x95, 0xaf, 0x00, 0xbd,
  0x99, 0xb0, 0xce, 0xbd, 0x39, 0x33, 0x18, 0xbe, 0x99, 0xb2, 0x7b, 0x3d,
  0xaf, 0x4b, 0xdc, 0xbd, 0x4c, 0x50, 0x1d, 0x3e, 0x86, 0x0a, 0x05, 0xbe,
  0x1e, 0x9a, 0x47, 0xbd, 0x1e, 0x54, 0xa6, 0xbc, 0x27, 0x36, 0xe0, 0xbc,
  0x20, 0xfd, 0x04, 0xbe, 0xb0, 0xa7, 0x15, 0xbb, 0x95, 0xd7, 0xf1, 0x3d,
  0xcf, 0xe8, 0xc6, 0xbd, 0xad, 0x6e, 0x22, 0xbe, 0xca, 0x04, 0x10, 0xbe,
  0xc7, 0xdb, 0x46, 0xbd, 0x71, 0xca, 0x2b, 0x3d, 0x7f, 0x23, 0x3b, 0xbe,
  0xfc, 0xdb, 0x06, 0xbb, 0x75, 0xf8, 0xad, 0xbc, 0xca, 0x1a, 0xb7, 0xbd,
  0x15, 0x75, 0x26, 0xbe, 0x0e, 0xa9, 0xeb, 0xbd, 0x3f, 0x89, 0x52, 0xbe,
  0x54, 0xc5, 0x47, 0xbe, 0x59, 0x3d, 0xb0, 0x3d, 0x78, 0x84, 0x47, 0xbc,
  0xf9, 0xd8, 0x26, 0xbe, 0x26, 0xe5, 0xd6, 0x3d, 0xb6, 0x2a, 0x90, 0xbd,
  0x96, 0x11, 0xca, 0xbc, 0x21, 0x2c, 0xae, 0xbe, 0xea, 0x79, 0x2d, 0xbe,
  0x15, 0xd5, 0x36, 0xbe, 0x9e, 0x54, 0x67, 0xbe, 0xfd, 0x26, 0xcc, 0xbd,
  0xcb, 0x94, 0x8a, 0x3d, 0xa4, 0x82, 0x7f, 0x3e, 0x30, 0x9a, 0x45, 0x3e,
  0xd2, 0x6f, 0xab, 0xbc, 0x94, 0xe8, 0x89, 0x3d, 0x84, 0xd1, 0xdc, 0x3d,
  0x7a, 0x89, 0xa1, 0x3e, 0xea, 0x60, 0x8b, 0xbd, 0x46, 0x48, 0x3e, 0xbf,
  0xca, 0x87, 0x08, 0x3e, 0x28, 0x92, 0x88, 0xbd, 0x66, 0x68, 0xbf, 0x3c,
  0xdb, 0x46, 0x55, 0x3e, 0x98, 0x12, 0x01, 0xbd, 0xbe, 0x1a, 0x0d, 0xbf,
  0x4a, 0x71, 0x2a, 0x3e, 0x00, 0xfe, 0xa4, 0xba, 0x88, 0xe0, 0x8f, 0x3f,
  0x69, 0x4d, 0x89, 0x3e, 0x58, 0x6f, 0x34, 0x3e, 0xd7, 0x94, 0x03, 0xbe,
  0x63, 0x7e, 0x1f, 0xbe, 0xf6, 0x58, 0x44, 0xbe, 0xda, 0x6e, 0x14, 0x3d,
  0x57, 0x2b, 0x00, 0xbe, 0xaf, 0x63, 0x5e, 0x3d, 0xd7, 0x38, 0x0e, 0xbd,
  0xae, 0xac, 0x23, 0x3d, 0x40, 0xbf, 0x81, 0x3e, 0x4e, 0x67, 0xb8, 0xbd,
  0xb2, 0xb1, 0x54, 0xbe, 0xfa, 0xe4, 0xde, 0xbd, 0x04, 0x29, 0xa3, 0xbd,
  0xe0, 0x2b, 0x6c, 0x3f, 0xe8, 0xb7, 0x8c, 0x3e, 0x23, 0x2e, 0x4b, 0xbd,
  0x6f, 0x91, 0xe5, 0x3e, 0x52, 0xa2, 0x11, 0xbe, 0x50, 0x55, 0x81, 0xbe,
  0x47, 0x44, 0xaa, 0x3e, 0xbb, 0x5e, 0xe5, 0xbd, 0x46, 0xe0, 0x8a, 0xbe,
  0x34, 0xa6, 0x80, 0xbd, 0x2d, 0x60, 0xca, 0xbe, 0x33, 0x40, 0x73, 0x3e,
  0xa7, 0x44, 0xdc, 0xbd, 0xe2, 0xd7, 0x77, 0x3d, 0xa6, 0x08, 0xe3, 0xbd,
  0x79, 0x71, 0x42, 0x3e, 0xf6, 0xcd, 0x15, 0x3f, 0x65, 0x67, 0x8b, 0x3d,
  0x94, 0xf6, 0xe5, 0xbc, 0xad, 0x68, 0xbe, 0x3e, 0x57, 0x28, 0x7c, 0x3e,
  0x37, 0xd1, 0x1b, 0x3d, 0x25, 0x69, 0x8d, 0x3e, 0x1e, 0x81, 0x4f, 0xbe,
  0x16, 0xb9, 0x64, 0xbe, 0x1f, 0x84, 0x0a, 0xbd, 0x25, 0x4f, 0xf2, 0xbe,
  0x13, 0xe6, 0x87, 0xbe, 0x20, 0xcc, 0x32, 0xbe, 0x9a, 0xfd, 0xe8, 0x3d,
  0x47, 0x4f, 0x9b, 0xbe, 0x90, 0x8f, 0x60, 0xbd, 0x34, 0xd5, 0x4c, 0x3f,
  0x14, 0xad, 0x07, 0x3f, 0xb3, 0xd1, 0x17, 0x3c, 0x19, 0xae, 0x26, 0x3e,
  0x8a, 0x57, 0x03, 0x3e, 0x35, 0x2f, 0x05, 0xbe, 0xf1, 0x9b, 0x2f, 0xbe,
  0x72, 0x70, 0x14, 0xbf, 0x76, 0x56, 0x9c, 0xbc, 0x2a, 0xaf, 0x45, 0xbd,
  0x85, 0x14, 0x24, 0xbe, 0xe0, 0x3f, 0xc0, 0xbe, 0xa3, 0xfb, 0x3b, 0xbe,
  0xd7, 0x9f, 0xbb, 0x3e, 0x1c, 0x91, 0x07, 0xbe, 0x11, 0xa6, 0x9b, 0x3d,
  0x61, 0x20, 0x37, 0x3f, 0x88, 0xee, 0xb3, 0x3e, 0x82, 0x77, 0x1f, 0xbe,
  0xa9, 0xbf, 0xea, 0x3d, 0x50, 0xf8, 0x20, 0x3e, 0xda, 0x3f, 0x73, 0x3e,
  0x94, 0xb2, 0x82, 0xbe, 0xa2, 0xea, 0x8b, 0xbe, 0x1e, 0xdb, 0x1d, 0x3e,
  0x12, 0x9f, 0x2e, 0x3c, 0xd2, 0x9c, 0x51, 0x3c, 0x71, 0xa5, 0x18, 0xbe,
  0x91, 0x14, 0xae, 0x3a, 0x31, 0xac, 0x8e, 0xbe, 0x35, 0xa1, 0x2f, 0xbe,
  0xc6, 0x53, 0x57, 0xbd, 0x13, 0xb3, 0x2b, 0x3e, 0x51, 0x35, 0x2d, 0x3e,
  0x6d, 0x9d, 0xb8, 0xbd, 0xbc, 0x63, 0xee, 0x3d, 0xbf, 0x7c, 0x29, 0xbd,
  0xb9, 0xeb, 0x07, 0xbd, 0xcc, 0x3b, 0x9a, 0x3d, 0x51, 0x7c, 0x94, 0xbd,
  0x8b, 0x33, 0x78, 0xbc, 0x7a, 0xa9, 0x63, 0xbd, 0xa5, 0x08, 0x3c, 0xbd,
  0xf6, 0x9a, 0x59, 0x3e, 0x7c, 0x91, 0xc7, 0x3d, 0x58, 0x12, 0xc5, 0xbe,
  0xbd, 0xfa, 0xcc, 0x3e, 0x43, 0xec, 0xfc, 0xbd, 0x96, 0x12, 0x68, 0xbd,
  0xa4, 0x6e, 0x10, 0xbe, 0xc8, 0x6b, 0x04, 0x3e, 0xa6, 0x76, 0xfd, 0x3d,
  0x3e, 0x11, 0xc6, 0x3d, 0x69, 0x18, 0x0b, 0xbe, 0xa4, 0x3a, 0xd4, 0x3c,
  0xae, 0x19, 0x15, 0x3d, 0x66, 0x13, 0xc3, 0x3c, 0x3d, 0x80, 0xb3, 0x3c,
  0x77, 0x0f, 0x94, 0xbe, 0x37, 0x61, 0x65, 0x3c, 0x7f, 0x60, 0xa4, 0x3c,
  0x26, 0x18, 0x11, 0xbd, 0xfa, 0xec, 0xc9, 0xbd, 0xc4, 0x86, 0xe5, 0x3d,
  0x73, 0xc5, 0xcb, 0xbe, 0xc4, 0x14, 0x81, 0x3d, 0x94, 0xd1, 0xda, 0xbd,
  0xcc, 0x9d, 0x19, 0x3e, 0xb5, 0xa9, 0xf8, 0x3d, 0x84, 0x1f, 0xeb, 0xbe,
  0x77, 0xb3, 0x70, 0x3d, 0xcf, 0x7e, 0x5b, 0xbc, 0x65, 0x41, 0x61, 0xba,
  0x43, 0xca, 0x8c, 0x3c, 0xc2, 0xf8, 0x09, 0xbe, 0x3e, 0xc9, 0x9a, 0xbc,
  0x67, 0xd8, 0x20, 0xbe, 0x68, 0xb2, 0x47, 0x3e, 0xda, 0x34, 0x9c, 0x3d,
  0x92, 0x3b, 0x78, 0xbb, 0x09, 0xdf, 0x00, 0xbc, 0x23, 0x97, 0x86, 0xbd,
  0x21, 0xd7, 0xa3, 0xbd, 0xcd, 0xf2, 0xba, 0xbd, 0xa5, 0x0e, 0x02, 0xbe,
  0xa8, 0x6d, 0xa3, 0x3d, 0xbf, 0x8c, 0xf7, 0xbd, 0x60, 0x0b, 0x07, 0xbe,
  0x6c, 0xef, 0x70, 0xbd, 0x8b, 0x1b, 0x08, 0xbe, 0x7b, 0x1e, 0xae, 0x3c,
  0x45, 0x01, 0x74, 0xbe, 0xe2, 0xcf, 0x61, 0xbe, 0xe5, 0x05, 0x9f, 0xbd,
  0xf7, 0x9f, 0xcf, 0xbd, 0x20, 0xcf, 0xc8, 0x3d, 0xd0, 0x5b, 0x63, 0x3d,
  0xea, 0xda, 0xe7, 0xbd, 0xdf, 0xaa, 0x18, 0x3e, 0xa5, 0xc1, 0xad, 0xbe,
  0xef, 0xc6, 0x79, 0xbe, 0xc8, 0xc2, 0x3e, 0x3d, 0x28, 0x40, 0x35, 0xbb,
  0x6a, 0xb9, 0x38, 0x3d, 0xaf, 0x79, 0x52, 0xbd, 0x2a, 0x17, 0xd9, 0xbd,
  0xe5, 0xa9, 0x66, 0x3e, 0xeb, 0x09, 0xac, 0x3e, 0x48, 0x6f, 0x89, 0xbd,
  0x8d, 0x4f, 0x5b, 0xbb, 0x78, 0xd8, 0xf2, 0x3d, 0x73, 0x15, 0xe9, 0x3d,
  0x60, 0x9b, 0xb3, 0x3d, 0x65, 0x84, 0xae, 0xbd, 0x6b, 0xd4, 0x7b, 0x3e,
  0x20, 0x9f, 0x80, 0xbc, 0xb4, 0x77, 0x28, 0xbe, 0xdf, 0x86, 0x15, 0x3d,
  0xfd, 0x7d, 0x8c, 0x3e, 0x89, 0xcc, 0x95, 0x3d, 0xe3, 0x84, 0x3b, 0xbd,
  0x16, 0x36, 0xa4, 0xbd, 0xe1, 0x41, 0x46, 0x3e, 0x98, 0x94, 0x31, 0x3e,
  0xee, 0x4f, 0x2f, 0xbc, 0x86, 0xe7, 0x99, 0xbd, 0xfc, 0x06, 0x33, 0x3e,
  0x57, 0x13, 0x17, 0x3e, 0x05, 0xd9, 0x7b, 0xbe, 0x73, 0xe5, 0x9e, 0x3c,
  0x9d, 0xf9, 0x2a, 0x3e, 0x04, 0x04, 0xaf, 0x3d, 0x32, 0xde, 0xc3, 0x3d,
  0xe7, 0xf0, 0x86, 0xbe, 0x9f, 0x58, 0x81, 0x3e, 0xda, 0xc9, 0x48, 0x3d,
  0x89, 0x2c, 0xb0, 0xbd, 0xe3, 0xd6, 0x0b, 0xbd, 0xff, 0x12, 0x10, 0x3e,
  0xaa, 0xfb, 0x76, 0x3d, 0xa9, 0x2d, 0xbf, 0x3c, 0x9b, 0xc7, 0x8f, 0xbd,
  0xbd, 0x7d, 0x37, 0xbd, 0x57, 0x3d, 0xe3, 0x3d, 0x98, 0xbc, 0x16, 0xbe,
  0x8f, 0x0f, 0x23, 0x3c, 0xc7, 0xc8, 0xee, 0x3d, 0xc9, 0x41, 0x14, 0x3d,
  0xcd, 0xe4, 0xfa, 0xbc, 0x83, 0xe6, 0xbc, 0xbc, 0x43, 0x55, 0xc5, 0x3d,
  0x09, 0x41, 0xf3, 0x3b, 0x8f, 0x41, 0x2b, 0x3d, 0x79, 0xf0, 0xb1, 0xbc,
  0x1e, 0x8d, 0xcf, 0xbd, 0xe4, 0x2c, 0x49, 0xbe, 0x0f, 0xd7, 0x23, 0xbf,
  0x62, 0x1a, 0xdd, 0x3e, 0x0c, 0x64, 0x48, 0xbe, 0xef, 0x6e, 0xda, 0x3e,
  0xde, 0xa0, 0x58, 0xbe, 0xda, 0xf2, 0x25, 0x3d, 0x04, 0x16, 0xaa, 0xbe,
  0xa8, 0xec, 0x42, 0xbe, 0xc9, 0x17, 0xa1, 0xbe, 0x24, 0x8b, 0x1e, 0xbe,
  0xb3, 0x78, 0x8e, 0x3e, 0x33, 0xc1, 0x25, 0x3e, 0x67, 0xa0, 0x14, 0x3d,
  0x51, 0x07, 0xd5, 0xbd, 0x5b, 0x65, 0x8d, 0xbd, 0x7d, 0x81, 0xc4, 0x3e,
  0xe6, 0xd5, 0x08, 0xbf, 0xeb, 0x8b, 0x9c, 0x3c, 0x08, 0x0a, 0xc0, 0x3e,
  0x43, 0xa1, 0x3e, 0x3e, 0x15, 0x7d, 0x6e, 0xbe, 0xaf, 0x14, 0x45, 0xbe,
  0x84, 0x65, 0xa9, 0x3d, 0x91, 0xa2, 0xf5, 0xbd, 0x90, 0x7a, 0x83, 0xbe,
  0xf5, 0xb4, 0x2c, 0x3e, 0x7e, 0xd4, 0x7f, 0x3e, 0x98, 0x42, 0x3f, 0x3e,
  0xa3, 0x17, 0x18, 0x3e, 0xf5, 0xdf, 0x5b, 0xbd, 0x8e, 0x4f, 0xc3, 0xbd,
  0xe1, 0x99, 0xaa, 0x3b, 0xe3, 0xbd, 0xbf, 0xbd, 0xe9, 0x5e, 0x62, 0xbd,
  0x76, 0xbf, 0x2f, 0x3e, 0x0a, 0x99, 0x83, 0x3e, 0x1d, 0x07, 0x0f, 0xbd,
  0xd3, 0xe4, 0x1e, 0x3c, 0xe5, 0x39, 0x70, 0xbe, 0xb6, 0xe1, 0xab, 0xbd,
  0xf0, 0x98, 0x27, 0xbe, 0x20, 0xed, 0x47, 0x3d, 0x5e, 0x70, 0xa6, 0x3e,
  0x72, 0xec, 0x68, 0x3d, 0x8e, 0x49, 0xcb, 0x3d, 0x93, 0x60, 0x2e, 0xbd,
  0x3d, 0x52, 0xdb, 0xbe, 0xde, 0x08, 0x19, 0x3e, 0xc1, 0x67, 0xa1, 0xbe,
  0xc2, 0x83, 0x56, 0xbe, 0x31, 0x9b, 0xd2, 0x3d, 0x25, 0xc7, 0x8a, 0xbd,
  0x92, 0x0a, 0x55, 0xbe, 0x92, 0x9b, 0x7e, 0xbe, 0x8f, 0x86, 0x9c, 0xbd,
  0xda, 0xd2, 0x83, 0xbe, 0xe8, 0xcd, 0xab, 0xbe, 0xcc, 0x77, 0xcf, 0x3c,
  0xa1, 0x31, 0x7f, 0x3e, 0xa0, 0x8a, 0x4e, 0xbe, 0xb4, 0x74, 0xf9, 0x3d,
  0x1a, 0x9d, 0xaa, 0xbd, 0x00, 0x98, 0xda, 0xbd, 0xb7, 0x3b, 0x33, 0x3e,
  0x4e, 0x94, 0x95, 0xbe, 0x31, 0x42, 0xc8, 0xbd, 0x69, 0x91, 0x63, 0x3e,
  0xaa, 0x6c, 0xc3, 0xbc, 0x47, 0x01, 0x54, 0x3e, 0xef, 0xb0, 0x5f, 0x3d,
  0x4c, 0x1b, 0x13, 0xbe, 0x0b, 0x67, 0x1d, 0xbe, 0x08, 0x90, 0xa4, 0xbe,
  0xdb, 0x89, 0x4f, 0x3d, 0xc8, 0xa4, 0x9f, 0x3e, 0x39, 0x99, 0x49, 0x3e,
  0x01, 0xa2, 0x4d, 0x3e, 0x87, 0x1b, 0x03, 0x3d, 0xec, 0x31, 0x58, 0xbe,
  0x77, 0xb3, 0x9d, 0x3c, 0x74, 0x49, 0x93, 0xbe, 0xce, 0xd2, 0xe9, 0xbb,
  0xbe, 0xc6, 0x69, 0x3e, 0x01, 0xb4, 0x1f, 0x3e, 0xb4, 0x11, 0x03, 0x3e,
  0x94, 0x58, 0xdf, 0xbd, 0x50, 0x71, 0xd8, 0x3c, 0xef, 0x6a, 0xf7, 0xbe,
  0x98, 0x9d, 0x5f, 0xbe, 0xc1, 0x8f, 0xee, 0x3b, 0xa0, 0x63, 0x76, 0x3d,
  0xbb, 0x1e, 0x8a, 0xbe, 0x5f, 0x71, 0x12, 0x3e, 0x65, 0xf5, 0xc4, 0xbd,
  0x25, 0x73, 0x1c, 0xbd, 0x30, 0x3d, 0x13, 0xbd, 0x7b, 0x2d, 0x31, 0xbe,
  0x49, 0x0a, 0x07, 0x3d, 0x68, 0x69, 0x52, 0x3e, 0x44, 0xa5, 0xc1, 0xbd,
  0x8a, 0x31, 0x5c, 0xbe, 0xed, 0xc1, 0xf3, 0xbd, 0x54, 0x9f, 0x24, 0xbe,
  0xd8, 0x6d, 0x32, 0x3d, 0xb4, 0xdd, 0x20, 0xbe, 0x16, 0x21, 0x73, 0xbb,
  0x2c, 0xa0, 0x83, 0x3d, 0xb1, 0x5b, 0x2d, 0x3e, 0x69, 0x4d, 0x06, 0x3e,
  0x9d, 0x90, 0x36, 0xbc, 0x01, 0x04, 0xb5, 0xb9, 0xf9, 0x5f, 0x42, 0x3d,
  0xab, 0xf9, 0xf4, 0xbd, 0xce, 0x8e, 0xda, 0x3e, 0xd4, 0xeb, 0xb8, 0xbd,
  0x3a, 0xa7, 0x1b, 0x3c, 0xe9, 0x8d, 0x26, 0x3e, 0x04, 0x63, 0x0b, 0x3d,
  0x1e, 0x1d, 0x2a, 0xbb, 0x85, 0x8b, 0xaf, 0xbd, 0xa8, 0x04, 0x4a, 0xbd,
  0xdd, 0x9b, 0x10, 0xbe, 0xef, 0xb7, 0x66, 0xbd, 0xf4, 0x2a, 0x16, 0xbe,
  0x9c, 0x86, 0x53, 0x3d, 0xa6, 0xd7, 0x97, 0xbe, 0x62, 0x7c, 0x53, 0xbd,
  0xd4, 0xe3, 0x95, 0xbd, 0x7b, 0x0e, 0x32, 0xbe, 0xd3, 0xa7, 0xb7, 0x3e,
  0xbf, 0x04, 0x61, 0xbe, 0x51, 0x3e, 0x38, 0xbe, 0x44, 0xbe, 0x80, 0xbd,
  0x8b, 0xeb, 0xda, 0xbc, 0x43, 0xc7, 0x80, 0xbd, 0x54, 0xba, 0xfd, 0x3d,
  0x18, 0x56, 0x04, 0x3e, 0x29, 0x49, 0x78, 0x3e, 0x97, 0x8d, 0xe7, 0x3d,
  0xab, 0x20, 0xfb, 0xbd, 0xe1, 0x02, 0xd9, 0xbd, 0x90, 0x3b, 0x08, 0xbf,
  0x46, 0x93, 0x67, 0x3c, 0x76, 0xd7, 0xb3, 0xbd, 0xa3, 0xc3, 0xf1, 0xbe,
  0xa9, 0x90, 0x87, 0x3e, 0x19, 0x9f, 0x41, 0xbe, 0x88, 0x5f, 0x15, 0x3e,
  0x61, 0x8d, 0xfd, 0xbc, 0x6b, 0x13, 0xde, 0x3d, 0xd6, 0x84, 0x48, 0xbe,
  0xf6, 0x23, 0xc7, 0xbd, 0xe9, 0x78, 0xc5, 0xbd, 0x5f, 0xe7, 0xca, 0xbd,
  0x60, 0xb9, 0x5e, 0x3e, 0x35, 0x31, 0x12, 0x3e, 0x80, 0x5e, 0x22, 0xbe,
  0x21, 0xfb, 0xb6, 0xbe, 0x75, 0xf2, 0xf1, 0xbd, 0xc5, 0xb5, 0x6f, 0xbe,
  0x6c, 0x1e, 0xe1, 0xbe, 0x29, 0xab, 0xca, 0x3e, 0x98, 0x72, 0x0b, 0xbd,
  0xc2, 0x1f, 0x16, 0x3c, 0x97, 0xd5, 0xf1, 0xbd, 0xc5, 0xce, 0xfe, 0x3d,
  0x5d, 0xae, 0x83, 0xbe, 0xc4, 0xcf, 0x80, 0x3d, 0xfd, 0x59, 0x1f, 0x3e,
  0x15, 0x42, 0xc0, 0x3d, 0xc6, 0xfd, 0x37, 0x3d, 0x3b, 0xb5, 0x6b, 0xbd,
  0x8d, 0x4d, 0x4d, 0xbd, 0x49, 0x41, 0xc7, 0xbe, 0x8d, 0xfa, 0x48, 0xbd,
  0x45, 0x90, 0x3c, 0x3d, 0x88, 0x75, 0xb0, 0xbe, 0xee, 0x40, 0x4f, 0x3e,
  0x55, 0xea, 0x10, 0x3e, 0xa3, 0x4a, 0x52, 0x3d, 0x0d, 0xf5, 0xc6, 0x3d,
  0xde, 0x87, 0xb7, 0x3d, 0xb6, 0x94, 0xa4, 0x3d, 0xc9, 0x1d, 0x03, 0xbe,
  0x9b, 0xcf, 0x8d, 0xbe, 0xbc, 0xd3, 0x26, 0x3e, 0x8c, 0x47, 0x6e, 0xbc,
  0xab, 0x34, 0x01, 0x3e, 0x31, 0xa4, 0xee, 0xbd, 0x74, 0x2b, 0xbc, 0xbe,
  0x5c, 0xd3, 0x40, 0xbd, 0xe1, 0xe7, 0x33, 0xbe, 0x13, 0xb8, 0xee, 0xbd,
  0x5b, 0x73, 0x37, 0x3e, 0x8e, 0xa9, 0x80, 0xbd, 0x0f, 0xdc, 0xab, 0x3d,
  0xcc, 0x7c, 0x45, 0xbe, 0x32, 0x7c, 0xf6, 0xbd, 0x35, 0x51, 0x49, 0xbe,
  0xb0, 0x4d, 0xc6, 0xbd, 0xe0, 0x66, 0xbc, 0xbd, 0x95, 0xf9, 0xf3, 0x3d,
  0xf4, 0xd4, 0xe4, 0x3d, 0xdc, 0x32, 0x1a, 0xbe, 0x95, 0xda, 0x2b, 0x3d,
  0xe6, 0xc9, 0x93, 0xbe, 0x8e, 0xdb, 0x1e, 0xbd, 0xe1, 0x8b, 0xf6, 0x3d,
  0xce, 0x52, 0x1a, 0xbe, 0x61, 0xfd, 0x05, 0xbe, 0x62, 0x04, 0xc1, 0x3d,
  0x26, 0xa6, 0xd4, 0x3d, 0xa7, 0xf1, 0xb1, 0xbd, 0xbb, 0xfb, 0x06, 0x3e,
  0xc8, 0x64, 0x80, 0xbd, 0x52, 0x4d, 0xf5, 0xbc, 0x6b, 0x8b, 0x1a, 0x3d,
  0xa9, 0x51, 0x83, 0x3d, 0xb9, 0x25, 0x11, 0x3d, 0x88, 0x95, 0xc4, 0xbd,
  0x15, 0x8b, 0x27, 0xbe, 0x77, 0xe3, 0x8f, 0xbd, 0x12, 0xa5, 0x74, 0xbd,
  0xdd, 0xbf, 0x83, 0xbe, 0x4e, 0xc4, 0x8f, 0xbe, 0xad, 0xec, 0x7b, 0x3e,
  0x12, 0x34, 0xbe, 0xbe, 0x61, 0x7e, 0xc8, 0x3e, 0x04, 0xcc, 0xae, 0xbd,
  0xd7, 0x8c, 0x4a, 0xbd, 0x10, 0x8a, 0xe7, 0xbe, 0xa4, 0x76, 0x90, 0xbe,
  0x3a, 0x82, 0x21, 0xbf, 0x76, 0x96, 0x37, 0xbe, 0x7b, 0x7b, 0xb9, 0x3c,
  0x21, 0xd8, 0x48, 0x3d, 0xb2, 0x1e, 0x12, 0xbd, 0xc7, 0x12, 0x92, 0xbd,
  0xb7, 0x4e, 0x0a, 0xbe, 0xd2, 0x90, 0x0f, 0xbd, 0xcc, 0x0c, 0x9f, 0x3d,
  0xab, 0xf9, 0xd3, 0xbd, 0x64, 0x4a, 0xb4, 0x3e, 0x92, 0x1d, 0xc2, 0x3d,
  0xa6, 0x16, 0x49, 0xbd, 0x90, 0xa0, 0xc2, 0xbe, 0x94, 0x61, 0x49, 0x3e,
  0x7a, 0xcb, 0x8f, 0xbe, 0x78, 0x83, 0x43, 0xbe, 0xd3, 0x42, 0xd6, 0x3e,
  0x13, 0x36, 0xf3, 0x3d, 0x9e, 0xa9, 0x53, 0x3e, 0x7e, 0xd9, 0x8a, 0x3d,
  0xf6, 0x19, 0x5e, 0x3d, 0x2e, 0x86, 0x70, 0xbd, 0x51, 0xed, 0x77, 0x3d,
  0x45, 0x59, 0x3d, 0x3e, 0x3a, 0x65, 0x70, 0xbd, 0x50, 0xb0, 0xfe, 0x3e,
  0xd2, 0xaf, 0x87, 0x3e, 0x4b, 0x53, 0x2b, 0xbd, 0xc1, 0xc8, 0x7f, 0xbe,
  0x8d, 0x31, 0xe7, 0x3d, 0x35, 0x43, 0x5c, 0xbe, 0xc6, 0x6e, 0x34, 0xbe,
  0xb3, 0xa3, 0x05, 0xbe, 0xc0, 0x8b, 0x92, 0x3e, 0xaa, 0xe5, 0x0f, 0x3e,
  0x47, 0xed, 0xa6, 0x3d, 0x2e, 0x77, 0xeb, 0x3d, 0x05, 0x7a, 0x56, 0xbd,
  0xfc, 0x3b, 0x0e, 0x3e, 0xdf, 0xfd, 0x80, 0x3e, 0x06, 0x62, 0x75, 0x3d,
  0x75, 0xb3, 0x5d, 0x3d, 0xc9, 0xb3, 0x3e, 0xbd, 0xde, 0x16, 0x3e, 0xbe,
  0x4e, 0x7f, 0x9b, 0xbd, 0x4b, 0x43, 0xd0, 0xbd, 0x60, 0x61, 0x83, 0xbe,
  0xa9, 0x88, 0x1a, 0xbe, 0x31, 0xfe, 0xd5, 0xbd, 0xb3, 0xb0, 0xd0, 0x3d,
  0xdb, 0xd3, 0xbe, 0x3d, 0xd0, 0x87, 0xcf, 0xba, 0xd6, 0xc8, 0xc2, 0x3d,
  0x2e, 0x6f, 0x37, 0xbe, 0x90, 0xad, 0x4a, 0x3c, 0xf8, 0xe6, 0x18, 0x3e,
  0x92, 0xf6, 0x3b, 0xbe, 0x73, 0x3f, 0x32, 0x3e, 0x40, 0xef, 0x8c, 0xbd,
  0x21, 0x25, 0x8d, 0x3d, 0xd6, 0xf9, 0x65, 0xbe, 0xff, 0x13, 0x07, 0xbe,
  0xad, 0xbc, 0x83, 0xbe, 0x52, 0xe0, 0x66, 0xbe, 0xe0, 0xb3, 0x3b, 0xbd,
  0x95, 0x65, 0x10, 0x3e, 0xd2, 0x19, 0x1f, 0xbe, 0x3d, 0x90, 0x2c, 0x3d,
  0xf8, 0x07, 0xd1, 0x3d, 0x40, 0x4b, 0xb7, 0xbe, 0x78, 0xa7, 0x9f, 0xbd,
  0xfc, 0xb8, 0xed, 0x3c, 0xc7, 0x5d, 0x8b, 0xbe, 0xb5, 0xd3, 0x56, 0x3e,
  0x53, 0x0f, 0x62, 0x3d, 0x96, 0x12, 0xc9, 0xbd, 0xdf, 0xff, 0x9b, 0xbe,
  0xfd, 0x77, 0x45, 0xbe, 0x6a, 0x00, 0x13, 0xbf, 0xe6, 0x20, 0x7b, 0xbe,
  0x0d, 0xa4, 0xa1, 0xbc, 0x47, 0x02, 0x3c, 0xbe, 0xed, 0x81, 0x73, 0xbd,
  0x14, 0x8c, 0x79, 0x3d, 0x57, 0x72, 0x4c, 0x3d, 0xd1, 0x09, 0xc9, 0xbe,
  0xbe, 0xd0, 0xa5, 0xbd, 0x0d, 0x02, 0xc4, 0xbd, 0xf8, 0xd1, 0x6e, 0x3b,
  0xee, 0x8d, 0xc2, 0x3d, 0x45, 0xb5, 0x84, 0xbd, 0xf8, 0x98, 0xe2, 0xbd,
  0x4a, 0x50, 0x6a, 0xbe, 0xa2, 0xb2, 0x5d, 0xbe, 0x19, 0x5f, 0x8d, 0xbd,
  0xc8, 0x37, 0x8a, 0xbc, 0xd4, 0xdf, 0x08, 0x3d, 0x49, 0xb5, 0x18, 0xbc,
  0x0e, 0x54, 0x05, 0xbd, 0xcc, 0xba, 0xf1, 0x3b, 0x4d, 0xb6, 0x18, 0xbd,
  0x87, 0x48, 0xd5, 0x3d, 0xd5, 0xf0, 0xee, 0xbd, 0xfd, 0xde, 0xff, 0xbd,
  0x29, 0x2f, 0x1a, 0x3e, 0x4f, 0x23, 0x29, 0x3d, 0x4c, 0xba, 0x00, 0xbd,
  0xc5, 0xac, 0xc0, 0xbc, 0x09, 0x04, 0xb1, 0x3d, 0xf3, 0x27, 0x85, 0xbd,
  0x4a, 0xfe, 0x3f, 0xbd, 0x8c, 0x9a, 0x1e, 0xbd, 0x17, 0x67, 0x09, 0xbd,
  0x48, 0xee, 0x5e, 0x3e, 0xb0, 0x7b, 0xfb, 0x3d, 0xa0, 0x94, 0xca, 0xbd,
  0x4c, 0x75, 0x1b, 0xbe, 0xf2, 0xf3, 0x9b, 0xbd, 0xed, 0x24, 0xf9, 0x3d,
  0x5c, 0xcd, 0x7a, 0xbc, 0xc0, 0x66, 0x0a, 0x3c, 0x0e, 0x21, 0xb7, 0x3d,
  0x22, 0x79, 0x4a, 0xbe, 0x10, 0x49, 0x16, 0xbd, 0xff, 0x4d, 0xaf, 0xbd,
  0xd9, 0x7f, 0x8d, 0x3d, 0xd6, 0xb2, 0xf4, 0x3d, 0xa2, 0x0e, 0x4e, 0xbc,
  0x27, 0x05, 0x28, 0x3e, 0xe4, 0x70, 0xc5, 0x3d, 0x2f, 0x59, 0x3d, 0xbd,
  0x9d, 0xf4, 0x2f, 0x3e, 0xe5, 0x5d, 0x0a, 0xbf, 0xb1, 0x21, 0x56, 0x3e,
  0xf7, 0xd1, 0x6f, 0xbe, 0xda, 0xb9, 0x20, 0xbd, 0xbb, 0x60, 0x98, 0x3d,
  0x49, 0xab, 0xb3, 0x3d, 0xc1, 0xe3, 0xe6, 0xbb, 0xda, 0x7d, 0xf9, 0x3d,
  0xe4, 0x13, 0xc2, 0x3d, 0xb8, 0xdd, 0x8e, 0xbd, 0xd3, 0xfc, 0xdd, 0x3d,
  0x55, 0x7f, 0x85, 0xbd, 0xd5, 0x35, 0xb1, 0x3e, 0x49, 0xbd, 0x68, 0x3e,
  0xa3, 0x86, 0xff, 0xbd, 0x2e, 0xd8, 0x58, 0xbe, 0xd1, 0xe6, 0x16, 0xbe,
  0xdb, 0xe7, 0x72, 0xbd, 0x91, 0xed, 0x73, 0xbe, 0x89, 0x15, 0xa3, 0x3d,
  0xcf, 0x3f, 0x8c, 0x3d, 0x14, 0x01, 0xf0, 0xbd, 0xf1, 0xfc, 0x89, 0x3c,
  0x51, 0x99, 0x84, 0x3d, 0xd9, 0xc9, 0xdf, 0x3d, 0x71, 0xa1, 0x51, 0xbe,
  0x2f, 0x40, 0x78, 0xbc, 0x07, 0x3e, 0x83, 0x3d, 0x92, 0xd3, 0x8b, 0x3d,
  0x09, 0x13, 0x50, 0x3d, 0xab, 0x48, 0x20, 0xbe, 0xef, 0x9d, 0x1f, 0xbe,
  0x91, 0x24, 0x00, 0xbf, 0xea, 0x94, 0x1c, 0xbd, 0x70, 0x0b, 0x61, 0xbb,
  0x22, 0x62, 0x58, 0xbe, 0xc0, 0x94, 0xb9, 0x3d, 0x5a, 0x3a, 0x97, 0x3e,
  0xea, 0x37, 0x0a, 0x3e, 0x59, 0x9a, 0x91, 0xbd, 0x5e, 0xe4, 0x87, 0xbc,
  0x5e, 0xd9, 0x9a, 0x3d, 0xf0, 0xa5, 0x19, 0x3d, 0x20, 0x88, 0x9f, 0x3c,
  0xdf, 0xb1, 0x3d, 0x3e, 0xab, 0x5f, 0x93, 0xbd, 0x6c, 0x1a, 0x01, 0x3e,
  0x2b, 0x82, 0xf6, 0xbd, 0x68, 0xef, 0x84, 0xbe, 0x8e, 0x51, 0x74, 0xbc,
  0x2f, 0x60, 0x2a, 0xbe, 0xc2, 0x0a, 0xcf, 0xbd, 0xbd, 0xe2, 0xb2, 0x3d,
  0x82, 0x07, 0x19, 0xbd, 0x63, 0x36, 0x3f, 0x3e, 0xf9, 0x1e, 0x4e, 0xbe,
  0x9a, 0x9f, 0x15, 0xbe, 0x89, 0x70, 0x7b, 0xbe, 0x1a, 0xa3, 0x8f, 0xbe,
  0xca, 0x79, 0x97, 0xbd, 0x0a, 0xc1, 0x18, 0x3d, 0xaa, 0xdc, 0x0d, 0xbe,
  0x0d, 0x7e, 0x34, 0xbe, 0x29, 0x89, 0x1e, 0x3d, 0xb2, 0xce, 0x87, 0xbe,
  0x6e, 0x60, 0xb1, 0x3c, 0xb0, 0xb5, 0x01, 0xbd, 0xa9, 0x23, 0xac, 0xbe,
  0x06, 0x04, 0x0d, 0x3e, 0x7a, 0xc4, 0xc1, 0xbd, 0x98, 0x75, 0xb6, 0x3d,
  0x93, 0x75, 0xd5, 0xbd, 0xea, 0xb6, 0xff, 0x3d, 0xfd, 0xa8, 0xcc, 0x3d,
  0xa3, 0x43, 0x44, 0x3c, 0x44, 0x45, 0x16, 0xbe, 0x08, 0x2a, 0x16, 0xbe,
  0x7e, 0x08, 0x27, 0x3d, 0x4f, 0x19, 0x54, 0x3d, 0x69, 0x5e, 0xbe, 0xbb,
  0x2f, 0x15, 0x93, 0xbd, 0xeb, 0x30, 0x36, 0xbe, 0x9a, 0xa0, 0x84, 0xbe,
  0xd9, 0xb8, 0x87, 0xbe, 0x16, 0x47, 0xcf, 0xbc, 0x02, 0x0e, 0xd4, 0xbd,
  0x5b, 0x28, 0x7d, 0x3d, 0x9b, 0x4a, 0x6c, 0x3e, 0x96, 0x87, 0x87, 0x3e,
  0x6a, 0x6b, 0x36, 0xbe, 0x39, 0x8f, 0xa8, 0xbd, 0x8b, 0xaf, 0x32, 0x3d,
  0xa4, 0x6f, 0x95, 0x3e, 0x9f, 0x44, 0x29, 0x3d, 0xf9, 0xed, 0xd1, 0xbe,
  0x87, 0x5c, 0xcf, 0x3d, 0xbe, 0x9b, 0x59, 0xbc, 0xa5, 0xca, 0x2d, 0x3e,
  0xba, 0x66, 0x53, 0xbe, 0xfe, 0xcb, 0x47, 0xbe, 0xb3, 0xe9, 0x94, 0xbd,
  0xe4, 0x84, 0x73, 0x3d, 0x3a, 0x17, 0x52, 0xbd, 0x5e, 0xa0, 0x26, 0x3f,
  0xaf, 0xbf, 0x16, 0x3e, 0x8b, 0x6b, 0x51, 0xbd, 0xf5, 0x0e, 0xd1, 0x3d,
  0xb2, 0x09, 0x75, 0x3d, 0xe3, 0x28, 0x74, 0x3e, 0x68, 0x5a, 0x7a, 0xbe,
  0xe9, 0x28, 0x67, 0xbd, 0x79, 0xc4, 0x91, 0x3d, 0x2b, 0xfc, 0xfb, 0xbc,
  0x58, 0xaf, 0x1d, 0x3c, 0x23, 0xb3, 0x87, 0xbd, 0xea, 0x77, 0x92, 0xbd,
  0x74, 0x53, 0x57, 0xbe, 0xfe, 0x13, 0x03, 0xbe, 0xd5, 0xc0, 0x1a, 0x3d,
  0x2d, 0x65, 0x51, 0x3f, 0x19, 0xf2, 0x99, 0x3e, 0x26, 0x31, 0x92, 0xbe,
  0x32, 0x99, 0x62, 0x3e, 0xab, 0x76, 0x51, 0x3e, 0x2f, 0x65, 0x8a, 0xbc,
  0xb0, 0x3d, 0xd2, 0x3d, 0x3f, 0xa4, 0x4b, 0x3e, 0x6e, 0xf1, 0x6c, 0x3d,
  0x41, 0x4d, 0x83, 0x3d, 0x64, 0xfd, 0x57, 0xbe, 0xc6, 0xc4, 0xd9, 0x3d,
  0x82, 0x3c, 0xce, 0xbd, 0xd2, 0x18, 0x01, 0xbe, 0x05, 0x7e, 0x01, 0xbe,
  0xd4, 0xc4, 0x5d, 0x3e, 0x50, 0xa3, 0xf6, 0x3e, 0xc8, 0xf0, 0xbb, 0x3e,
  0xf5, 0x30, 0x4f, 0x3e, 0xcd, 0x45, 0xbd, 0x3e, 0x34, 0xd4, 0xab, 0x3e,
  0x89, 0xb0, 0x32, 0x3d, 0xa2, 0x0a, 0x64, 0x3e, 0x42, 0x55, 0x79, 0xbd,
  0x14, 0x33, 0xbd, 0xbc, 0x4f, 0x16, 0x84, 0x3d, 0x18, 0x3a, 0x9f, 0xbe,
  0x99, 0xb4, 0x0f, 0xbe, 0x70, 0x47, 0x71, 0xbd, 0x52, 0x73, 0x6a, 0xbd,
  0x4f, 0x79, 0xa9, 0x3b, 0x9d, 0x4c, 0xab, 0x3c, 0x41, 0xdc, 0x37, 0x3f,
  0x0c, 0xe4, 0xc4, 0x3e, 0xfb, 0xf2, 0x39, 0xbe, 0x6d, 0x6d, 0xe5, 0x3d,
  0x7c, 0x22, 0x06, 0x3e, 0xa6, 0x2f, 0x1e, 0x3e, 0x0e, 0x90, 0x2c, 0xbe,
  0x38, 0xad, 0xdb, 0xbe, 0xe2, 0xa6, 0x02, 0x3c, 0x38, 0x83, 0x17, 0x3c,
  0x37, 0xc4, 0x11, 0xbe, 0xcd, 0xdc, 0x49, 0xbe, 0x9e, 0xa4, 0x3f, 0xbe,
  0x91, 0xc1, 0xa3, 0x3e, 0x8a, 0x03, 0x3c, 0xbe, 0xc3, 0x85, 0x71, 0x3e,
  0xb6, 0xea, 0x2a, 0x3f, 0xb3, 0xb8, 0x8d, 0x3e, 0x74, 0xdc, 0x01, 0xbe,
  0xbc, 0x22, 0x4d, 0x3c, 0x38, 0xde, 0xf5, 0x3c, 0x4e, 0x38, 0x04, 0x3f,
  0x1c, 0xf6, 0x76, 0xbd, 0xc9, 0xe1, 0x88, 0xbe, 0x26, 0x42, 0x2f, 0x3c,
  0xfb, 0x6d, 0xab, 0x3c, 0x86, 0xc6, 0xce, 0xbd, 0x8b, 0x09, 0x00, 0xbe,
  0x78, 0xff, 0x8d, 0xbd, 0x08, 0x0c, 0x8b, 0x3d, 0xd3, 0xe7, 0x11, 0xbd,
  0x19, 0xd8, 0x85, 0xbd, 0x89, 0x91, 0x2f, 0x3e, 0xfe, 0xa6, 0x9f, 0x3d,
  0xa9, 0x61, 0x41, 0x3c, 0xa9, 0x65, 0x9c, 0x3d, 0xac, 0xd9, 0x91, 0xbc,
  0x6e, 0x4b, 0x50, 0x3e, 0x14, 0x2f, 0x33, 0x3d, 0x56, 0x52, 0xf3, 0xbd,
  0x81, 0x4e, 0x4a, 0x3d, 0x10, 0xb4, 0x49, 0x3c, 0xdc, 0x8e, 0xcb, 0xbd,
  0x8e, 0xee, 0x9b, 0x3e, 0xb2, 0x15, 0x6e, 0x3e, 0x6d, 0x49, 0xa1, 0xbe,
  0xf1, 0xb7, 0xf1, 0x3e, 0x7c, 0xe7, 0x9a, 0x3e, 0x89, 0x9a, 0x11, 0xbf,
  0x09, 0x13, 0x27, 0xbe, 0x99, 0x03, 0x31, 0x3e, 0x37, 0x44, 0xbe, 0x3d,
  0x68, 0x0c, 0xa6, 0x3d, 0x52, 0xbe, 0xbc, 0xbe, 0xe7, 0x74, 0x2f, 0xbd,
  0x3c, 0x0b, 0xfd, 0x3c, 0x64, 0xbc, 0xa0, 0xbc, 0x5e, 0x0e, 0xec, 0x3c,
  0x0d, 0x56, 0xca, 0xbe, 0xde, 0x71, 0xad, 0xbe, 0x72, 0x6e, 0xd6, 0xbd,
  0x26, 0x42, 0x0a, 0xbd, 0x3a, 0x36, 0x9b, 0x3d, 0x1a, 0x1b, 0x74, 0x3d,
  0x42, 0xee, 0xe1, 0xbd, 0xdf, 0x9c, 0x6d, 0xbd, 0xec, 0xd2, 0xf3, 0xbd,
  0x57, 0xb0, 0xc5, 0xbe, 0x21, 0x32, 0x2f, 0x3d, 0x2c, 0x37, 0xa2, 0xbe,
  0x89, 0x4f, 0x3f, 0xbe, 0xc1, 0x64, 0x73, 0xbe, 0xd6, 0xcf, 0x0a, 0xbd,
  0x13, 0x5f, 0xb0, 0xbc, 0x2e, 0xd0, 0x61, 0xbe, 0xef, 0xb9, 0x8f, 0x3b,
  0x82, 0xff, 0x72, 0xbe, 0xac, 0x6d, 0x15, 0x3e, 0x94, 0x71, 0xbc, 0x3b,
  0xa7, 0x1e, 0x88, 0xbc, 0xd6, 0xf0, 0x9d, 0xbc, 0xca, 0xf2, 0xc5, 0xbe,
  0xa9, 0xa3, 0x81, 0xbd, 0x96, 0x1a, 0x1f, 0xbf, 0x38, 0x4b, 0x61, 0xbe,
  0xc9, 0xb1, 0x07, 0x3e, 0x95, 0x59, 0x7f, 0xbe, 0x90, 0xd5, 0x2d, 0xbe,
  0x24, 0x38, 0x1f, 0xbd, 0x26, 0x93, 0x53, 0xbe, 0xa7, 0xe9, 0xc3, 0x3c,
  0xd8, 0xb5, 0x92, 0xbd, 0x9e, 0xff, 0xd1, 0xbe, 0x93, 0xa9, 0x4b, 0xbc,
  0x29, 0x0d, 0x7a, 0x3d, 0x21, 0x24, 0xa2, 0x3d, 0x2f, 0x1e, 0x87, 0xbd,
  0x42, 0x84, 0x7b, 0xbe, 0xed, 0x4b, 0xd4, 0x3d, 0x9d, 0x99, 0x3b, 0xbf,
  0x9f, 0xff, 0xf2, 0xbe, 0xa2, 0x4e, 0xfe, 0xbd, 0x42, 0xa2, 0x77, 0xbe,
  0xb1, 0x8f, 0x01, 0xbc, 0x91, 0x06, 0xf8, 0xbd, 0x67, 0x23, 0x4a, 0xbe,
  0xf5, 0xc2, 0x44, 0x3e, 0x4e, 0xa1, 0xef, 0x3e, 0xeb, 0xb5, 0x89, 0xbe,
  0x01, 0x16, 0xc9, 0xbd, 0x85, 0x70, 0x50, 0x3e, 0x5f, 0x88, 0x1a, 0x3e,
  0x9b, 0x01, 0xd0, 0xbb, 0xc2, 0x97, 0x08, 0x3d, 0x74, 0x06, 0xbe, 0x3e,
  0x92, 0xfd, 0x35, 0x3c, 0x22, 0xb8, 0x8a, 0xbe, 0x3f, 0x63, 0xf2, 0x3d,
  0xc3, 0x28, 0x92, 0x3e, 0xe4, 0x04, 0xdd, 0x3d, 0x1c, 0xe2, 0x89, 0xbd,
  0x9b, 0x4e, 0xef, 0xbd, 0xc6, 0x10, 0xf8, 0x3d, 0x69, 0x8a, 0xa1, 0x3e,
  0x3b, 0x16, 0xcf, 0x3c, 0x54, 0x50, 0x58, 0xbe, 0x43, 0x26, 0xa0, 0x3e,
  0x5e, 0xa6, 0x80, 0xbd, 0xfa, 0xc9, 0x23, 0xbe, 0x1f, 0x5c, 0x6d, 0xbd,
  0xa3, 0x1b, 0x43, 0x3e, 0xfa, 0x66, 0x95, 0x3d, 0x44, 0xee, 0x78, 0x3d,
  0x3a, 0xf5, 0xb2, 0xbe, 0x6c, 0x36, 0x75, 0x3e, 0xd7, 0xa7, 0x0d, 0x3e,
  0x4a, 0xbe, 0x16, 0xbd, 0x1c, 0x27, 0x42, 0xbd, 0x98, 0xbe, 0x7f, 0x3e,
  0x5c, 0xf9, 0x16, 0x3e, 0xa0, 0x40, 0x48, 0x3b, 0xd6, 0x0c, 0xca, 0xbd,
  0xbe, 0x72, 0x45, 0x3e, 0x27, 0xf7, 0x8a, 0x3e, 0xe9, 0x7b, 0x07, 0xbe,
  0x86, 0x7f, 0x37, 0xbd, 0x10, 0x87, 0x86, 0x3d, 0x76, 0xad, 0x66, 0x3d,
  0x50, 0x9d, 0x20, 0x3d, 0x2e, 0xe0, 0xc7, 0xbd, 0xca, 0x14, 0x74, 0x3e,
  0xe0, 0xa2, 0x27, 0x3d, 0x7a, 0xbd, 0x72, 0x3d, 0xfd, 0x9f, 0xd0, 0x3a,
  0x2e, 0x5b, 0x5d, 0xbe, 0xa2, 0x73, 0x32, 0xbd, 0x7e, 0xb2, 0x89, 0xbe,
  0xf5, 0xc2, 0xc2, 0x3d, 0x2b, 0x0d, 0x23, 0xbe, 0x39, 0xe3, 0x7e, 0x3d,
  0x43, 0x8a, 0xfe, 0x3c, 0x95, 0xd2, 0xab, 0xbd, 0xaf, 0x93, 0x0c, 0xbc,
  0x54, 0xeb, 0xca, 0xbc, 0xe7, 0x0d, 0x7d, 0x3d, 0x98, 0x9b, 0x41, 0xbe,
  0x30, 0x9f, 0x0b, 0xbe, 0xbc, 0xdd, 0x7b, 0xbe, 0xe0, 0x9d, 0x9f, 0xbd,
  0xaf, 0xfa, 0x65, 0xbe, 0xae, 0x84, 0x25, 0xbe, 0xa7, 0xda, 0xf4, 0x3d,
  0xc8, 0x26, 0xa2, 0xbe, 0xbc, 0x15, 0x52, 0xbe, 0x35, 0x65, 0x1c, 0x3d,
  0x28, 0x37, 0x23, 0xbe, 0xc7, 0x6d, 0x7b, 0xbd, 0xc4, 0x88, 0xe9, 0x3d,
  0x0e, 0x0c, 0x54, 0xbe, 0x44, 0x00, 0x64, 0xbc, 0x9c, 0xdd, 0xe6, 0x3d,
  0xbd, 0x92, 0xb4, 0xbc, 0xee, 0x8d, 0x51, 0xbe, 0x71, 0xee, 0xae, 0xbd,
  0xa8, 0x5f, 0x38, 0xbe, 0x6d, 0x37, 0xb1, 0xbe, 0xe9, 0xb1, 0x31, 0x3e,
  0x62, 0x53, 0x20, 0x3e, 0x9a, 0x3c, 0xbe, 0x3b, 0x69, 0x62, 0xd4, 0x3d,
  0xda, 0xe7, 0x24, 0xbd, 0xde, 0x44, 0xfd, 0x3d, 0x65, 0x1c, 0x70, 0xbe,
  0xfd, 0x76, 0x26, 0xbe, 0x60, 0xe1, 0x7c, 0xbe, 0x66, 0xc4, 0xf9, 0x3c,
  0xc6, 0x4b, 0x7c, 0xbc, 0x45, 0xeb, 0x23, 0xbe, 0x2b, 0xf1, 0x53, 0x3d,
  0x83, 0x95, 0x18, 0x3b, 0xe8, 0x95, 0x83, 0x3d, 0x0b, 0x69, 0x71, 0xbe,
  0xdc, 0x34, 0xb1, 0xbd, 0x9a, 0xcc, 0x76, 0x3d, 0x72, 0x7e, 0x96, 0xbe,
  0xcb, 0x12, 0x3c, 0x3d, 0x0a, 0x23, 0x71, 0x3d, 0x4a, 0xfe, 0x32, 0xbe,
  0x96, 0x26, 0x8b, 0xbe, 0x5e, 0xa3, 0x1c, 0x3e, 0xb9, 0x53, 0x41, 0xbe,
  0x00, 0xec, 0x60, 0xbe, 0x72, 0x46, 0x83, 0x3c, 0x83, 0xc0, 0xdf, 0xbd,
  0x30, 0x41, 0x2d, 0x3e, 0xf0, 0x9f, 0x15, 0x3e, 0xb0, 0xd2, 0x9d, 0xbe,
  0x7d, 0xc4, 0x0a, 0xbc, 0xf8, 0x29, 0x26, 0x3e, 0x12, 0xc0, 0x1d, 0xbc,
  0x7c, 0x5d, 0xa2, 0xbe, 0x58, 0x13, 0xa5, 0xbd, 0xff, 0x3a, 0xbf, 0x3d,
  0x3e, 0xaa, 0x39, 0xbe, 0xd1, 0x95, 0x39, 0x3c, 0x5f, 0xff, 0x81, 0xbc,
  0xb1, 0x45, 0x9a, 0x3d, 0x5e, 0x1f, 0x9c, 0x3d, 0xdb, 0x9c, 0x30, 0x3d,
  0xd2, 0x2b, 0xed, 0xbd, 0xc8, 0x78, 0x32, 0x3d, 0x0b, 0x45, 0xb0, 0xbd,
  0x1d, 0x71, 0xbd, 0xbb, 0xc1, 0xed, 0x74, 0xbe, 0x84, 0x89, 0x5a, 0xbe,
  0x89, 0x1a, 0x83, 0xbe, 0x08, 0xd7, 0x64, 0xbe, 0x21, 0x04, 0x2c, 0x3e,
  0x8a, 0x42, 0x68, 0xbe, 0x48, 0xf6, 0x3b, 0x3e, 0xcf, 0x44, 0x4c, 0xbe,
  0x82, 0x36, 0x08, 0x3e, 0x6d, 0x07, 0x87, 0xbd, 0x13, 0x9e, 0xca, 0x3d,
  0x88, 0xa0, 0x77, 0xbd, 0xf7, 0xf0, 0x8a, 0xbc, 0x2c, 0x25, 0xf0, 0x3c,
  0x1b, 0x4e, 0x78, 0xbe, 0x86, 0x0f, 0x96, 0xbd, 0x68, 0x1b, 0x6f, 0xbe,
  0x09, 0x57, 0xdb, 0x3d, 0xd8, 0x1b, 0x5f, 0xbd, 0x3b, 0xeb, 0xc1, 0xbd,
  0x57, 0x6b, 0x63, 0xbe, 0x98, 0xc5, 0x32, 0xbe, 0xef, 0xd1, 0xfb, 0x3d,
  0x15, 0x89, 0xd3, 0x3c, 0xbe, 0x79, 0x00, 0xbe, 0xf4, 0x55, 0x59, 0x3c,
  0xe6, 0x86, 0x1c, 0xbe, 0x88, 0xfb, 0x61, 0xbe, 0x08, 0xeb, 0x2b, 0xbe,
  0xcf, 0xe3, 0x24, 0xbd, 0x9c, 0x09, 0x07, 0xbe, 0x4f, 0xb1, 0xae, 0xbd,
  0x98, 0xcc, 0x12, 0xbe, 0x05, 0x9b, 0x2b, 0x3a, 0xb1, 0x7e, 0x05, 0xbd,
  0xde, 0x39, 0xd5, 0xbd, 0x58, 0x62, 0xf6, 0x3c, 0x93, 0x7e, 0x06, 0xbe,
  0x2d, 0xc8, 0x60, 0xbc, 0x03, 0xd9, 0x86, 0xba, 0x8e, 0xce, 0x0c, 0xbc,
  0xdf, 0x18, 0x53, 0xbe, 0x95, 0x84, 0x30, 0xbe, 0x81, 0x2f, 0x3d, 0xbd,
  0x42, 0x08, 0x46, 0xbe, 0x7c, 0x2f, 0xae, 0x3e, 0xba, 0x4d, 0xac, 0xbe,
  0xb4, 0x1c, 0x0f, 0x3c, 0x1f, 0x04, 0x40, 0xbe, 0x76, 0xf8, 0xc6, 0xbd,
  0x99, 0x76, 0x40, 0xbe, 0xa5, 0xe0, 0xe7, 0xbd, 0x5d, 0xf8, 0x34, 0x3e,
  0x37, 0x47, 0xef, 0xbd, 0xe5, 0x9f, 0xd1, 0x3a, 0xa1, 0xef, 0xa2, 0x3d,
  0x35, 0x5d, 0x82, 0xbd, 0xde, 0xc9, 0xf1, 0xbd, 0xb6, 0x9a, 0xbd, 0x3d,
  0x94, 0x02, 0xac, 0x3d, 0x57, 0x4d, 0x61, 0x3e, 0xc2, 0x6e, 0x8c, 0x3e,
  0x71, 0xed, 0x6a, 0xbe, 0x5f, 0x90, 0x45, 0xbd, 0xdf, 0x63, 0x47, 0xbe,
  0x09, 0x1b, 0x29, 0x3e, 0x86, 0xd4, 0x09, 0x3e, 0xa9, 0x82, 0xaa, 0x3c,
  0x3e, 0xf8, 0x8d, 0xbd, 0x3a, 0x88, 0x70, 0x3d, 0xe8, 0xe4, 0x50, 0x3d,
  0xb2, 0xc3, 0x46, 0x3d, 0x2f, 0xfb, 0x00, 0x3e, 0x23, 0x1c, 0xbd, 0x3d,
  0x43, 0x0b, 0xee, 0x3d, 0xa6, 0x90, 0xcb, 0x3d, 0x57, 0xd1, 0xf4, 0xbd,
  0x83, 0x84, 0x15, 0xbe, 0x07, 0x08, 0x3a, 0x3e, 0x79, 0xa3, 0x4a, 0xbe,
  0x2a, 0x5c, 0x36, 0xbe, 0xbe, 0x3a, 0x9f, 0xbd, 0x88, 0xe0, 0x2f, 0xbe,
  0xc0, 0x43, 0x96, 0xbe, 0x0a, 0x0c, 0xb3, 0x3d, 0xaa, 0xd1, 0x8e, 0x3d,
  0xad, 0x99, 0x12, 0x3e, 0x51, 0xb0, 0x83, 0xbd, 0x6e, 0xb8, 0x96, 0xbd,
  0x2c, 0x56, 0x34, 0xbe, 0x30, 0x3b, 0xd1, 0xbd, 0xe0, 0x5c, 0xef, 0x3d,
  0x77, 0xc9, 0x41, 0xbc, 0x80, 0x34, 0x48, 0x3e, 0x10, 0xbb, 0x9d, 0xbd,
  0x64, 0xc9, 0x5c, 0xbe, 0x1c, 0x30, 0xcd, 0xbe, 0x95, 0x6d, 0xda, 0x3d,
  0x17, 0xf1, 0x70, 0xbe, 0xfe, 0xc0, 0x74, 0xbc, 0xa7, 0x65, 0x87, 0xbd,
  0x2b, 0x31, 0xb0, 0x3b, 0x5b, 0xc9, 0x91, 0x3c, 0x7f, 0x66, 0x8d, 0xbd,
  0xf8, 0x0a, 0xbe, 0x3d, 0x09, 0xce, 0x82, 0xbe, 0x72, 0x01, 0xfc, 0xbd,
  0x2c, 0x61, 0xa8, 0x3d, 0xcf, 0xe1, 0x1a, 0x3d, 0x67, 0x9c, 0x67, 0x3e,
  0x82, 0xc8, 0xed, 0x3d, 0xa6, 0x79, 0xaa, 0xbc, 0x4d, 0x97, 0x54, 0xbe,
  0x12, 0x71, 0x9a, 0xbd, 0x81, 0x41, 0xe6, 0xbd, 0x77, 0xd2, 0x49, 0xbe,
  0x5f, 0x26, 0xfb, 0xbd, 0x9e, 0xe6, 0x5e, 0xbe, 0xe2, 0xc3, 0x4a, 0xbe,
  0x6c, 0x4b, 0xc8, 0xbd, 0xaf, 0x80, 0x50, 0xbe, 0x26, 0xcd, 0x97, 0x3d,
  0x52, 0x82, 0xcf, 0xbd, 0x19, 0xdb, 0x70, 0x3d, 0xfc, 0x58, 0x31, 0x3e,
  0x33, 0xed, 0x47, 0x3e, 0x5f, 0x7f, 0x96, 0xbc, 0x93, 0x22, 0xb8, 0x3d,
  0xc9, 0x18, 0xc4, 0xbe, 0xdd, 0x81, 0xe4, 0xbd, 0x51, 0x97, 0x23, 0x3d,
  0x0c, 0x7f, 0x4e, 0xbd, 0xa4, 0xb0, 0x2a, 0x3e, 0xe4, 0xa7, 0x16, 0x3d,
  0x38, 0x35, 0x5f, 0xbe, 0xe1, 0x3d, 0x7e, 0x3d, 0xfb, 0x0a, 0x5c, 0xbe,
  0x98, 0x8d, 0x9c, 0x3d, 0x6a, 0x4d, 0x84, 0xbd, 0x43, 0x6d, 0x31, 0xbd,
  0xcc, 0xae, 0xb5, 0x3d, 0x52, 0x82, 0x59, 0x3e, 0xf1, 0x03, 0x29, 0x3d,
  0x5c, 0xde, 0x9f, 0xbe, 0xa0, 0xed, 0x65, 0xbe, 0x99, 0xc5, 0x2c, 0x3d,
  0x92, 0x44, 0x40, 0xbe, 0xc2, 0xb8, 0xb5, 0xbe, 0x92, 0xff, 0x04, 0x3e,
  0x6e, 0x0c, 0x1a, 0x3e, 0x59, 0x2d, 0x2d, 0x3e, 0xb8, 0x7f, 0x97, 0xbe,
  0xb6, 0x0d, 0x1e, 0xbe, 0x15, 0x41, 0xc8, 0xbd, 0xb2, 0x57, 0x27, 0xbe,
  0x33, 0xf4, 0x46, 0xbe, 0xac, 0x48, 0x02, 0xbe, 0x89, 0x6c, 0x26, 0xbe,
  0x9a, 0xa6, 0x1d, 0x3e, 0xa1, 0xb3, 0x2b, 0x3e, 0x08, 0xca, 0xaf, 0xbe,
  0x32, 0x22, 0xa4, 0xbd, 0x15, 0xb0, 0x02, 0xbe, 0x03, 0x55, 0xb1, 0x3d,
  0x2c, 0x29, 0xf0, 0xbc, 0xa3, 0x67, 0x20, 0x3e, 0xe6, 0x3a, 0x05, 0x3d,
  0xac, 0xf6, 0x18, 0x3e, 0x9f, 0x08, 0xc6, 0x3d, 0xff, 0x86, 0xfa, 0xbd,
  0xe9, 0x38, 0x89, 0x3c, 0xc3, 0x8b, 0xb3, 0xbc, 0xa0, 0xa1, 0x2b, 0x3d,
  0xaa, 0x86, 0x7e, 0x3c, 0x95, 0x10, 0x1e, 0xbb, 0xf1, 0xef, 0x20, 0x3e,
  0x6a, 0xfa, 0x61, 0xbe, 0x03, 0xdb, 0x3e, 0x3e, 0x8a, 0x02, 0x2d, 0x3e,
  0x46, 0xa2, 0xa1, 0x3c, 0x7b, 0x37, 0xcc, 0x3c, 0xa9, 0xa4, 0x1d, 0x3e,
  0xae, 0xe7, 0x5b, 0x3e, 0xc7, 0xae, 0x15, 0xbe, 0x36, 0x39, 0x83, 0x3e,
  0xb0, 0xca, 0x13, 0xbe, 0xe5, 0x20, 0x7e, 0xbd, 0xc5, 0x5b, 0xb0, 0xbd,
  0x35, 0xe2, 0x43, 0xbe, 0xfb, 0x4b, 0x87, 0x3c, 0x2f, 0xb9, 0x84, 0x3e,
  0x7b, 0x6c, 0x4d, 0x3d, 0xf7, 0xc2, 0xab, 0xbe, 0x5f, 0x43, 0x52, 0x3e,
  0x66, 0x65, 0x53, 0x3d, 0x8d, 0xb6, 0x48, 0xbd, 0xc5, 0xc7, 0xbc, 0x3d,
  0x34, 0x2e, 0x3b, 0x3e, 0xaa, 0xc4, 0x48, 0xbe, 0xc0, 0xf7, 0xa3, 0x3d,
  0xdf, 0xc9, 0x04, 0x3e, 0xf1, 0x6b, 0x8b, 0xbd, 0x19, 0xc5, 0xea, 0xbd,
  0xd2, 0x60, 0xbd, 0xbd, 0x06, 0x71, 0x95, 0x3c, 0xdd, 0x7a, 0x19, 0x3d,
  0x25, 0xd1, 0x6c, 0xbd, 0xad, 0x4b, 0xb2, 0x3d, 0xdb, 0x4c, 0x1b, 0xbe,
  0x5a, 0x66, 0x22, 0xbe, 0x80, 0xa5, 0x2a, 0x3e, 0x1e, 0x1b, 0x60, 0xbe,
  0x28, 0xac, 0x0a, 0xbd, 0xd0, 0x73, 0x10, 0x3e, 0x84, 0x7a, 0x0a, 0x3e,
  0xac, 0x06, 0x99, 0xbd, 0x5e, 0xba, 0x15, 0x3d, 0x06, 0xe4, 0x21, 0xbe,
  0x47, 0xd4, 0x20, 0xbe, 0xd7, 0x02, 0x17, 0x3c, 0xfc, 0xc2, 0x3b, 0xbe,
  0xa6, 0x0c, 0x88, 0x3d, 0xdb, 0x31, 0x4a, 0x3e, 0xc6, 0xfe, 0x88, 0x3d,
  0x26, 0xc0, 0x97, 0xbe, 0x38, 0xf8, 0xeb, 0xbd, 0x29, 0xca, 0x27, 0x3d,
  0x79, 0x7c, 0x13, 0xbe, 0xd6, 0x68, 0x54, 0x3e, 0x36, 0x80, 0x58, 0x3e,
  0x91, 0x63, 0xe1, 0x3d, 0xb8, 0xf5, 0xca, 0x3d, 0xa7, 0x91, 0xf9, 0x3d,
  0xbe, 0xaf, 0xc6, 0x3d, 0xc8, 0x29, 0x19, 0xbe, 0xbc, 0x93, 0x43, 0xbe,
  0xc0, 0xaf, 0xb7, 0xbc, 0xb5, 0xf4, 0x20, 0x3e, 0xb7, 0x00, 0x89, 0x3d,
  0x50, 0x90, 0x6d, 0x3e, 0xb7, 0x63, 0xe5, 0xbe, 0x8d, 0x3d, 0xd5, 0xbd,
  0xee, 0xe4, 0xc9, 0x3d, 0x4f, 0xe0, 0x8c, 0xbe, 0x85, 0xec, 0x72, 0x3c,
  0xef, 0xbf, 0x69, 0xbe, 0x15, 0x72, 0xc5, 0x3d, 0xb3, 0x35, 0xc7, 0x3c,
  0x11, 0xbf, 0x30, 0xbe, 0x96, 0xac, 0x42, 0xbe, 0x3d, 0xbf, 0xe0, 0x3d,
  0x3e, 0xbc, 0x82, 0xbe, 0xa9, 0xff, 0x73, 0x3e, 0x08, 0x32, 0x72, 0x3e,
  0xb2, 0xc8, 0x21, 0xbd, 0x82, 0xeb, 0x94, 0xbd, 0x18, 0xcd, 0x5e, 0xbd,
  0x66, 0xfd, 0xff, 0xff, 0x10, 0x00, 0x00, 0x00, 0x07, 0x00, 0x00, 0x00,
  0x14, 0x00, 0x00, 0x00, 0x2c, 0x00, 0x00, 0x00, 0x02, 0x00, 0x00, 0x00,
  0x10, 0x00, 0x00, 0x00, 0x70, 0x00, 0x00, 0x00, 0x17, 0x00, 0x00, 0x00,
  0x73, 0x65, 0x71, 0x75, 0x65, 0x6e, 0x74, 0x69, 0x61, 0x6c, 0x2f, 0x64,
  0x65, 0x6e, 0x73, 0x65, 0x2f, 0x4d, 0x61, 0x74, 0x4d, 0x75, 0x6c, 0x00,
  0xd0, 0xfc, 0xff, 0xff, 0xda, 0xfd, 0xff, 0xff, 0x04, 0x00, 0x00, 0x00,
  0x08, 0x00, 0x00, 0x00, 0xff, 0xff, 0xff, 0xff, 0x70, 0x00, 0x00, 0x00,
  0x00, 0x00, 0x0e, 0x00, 0x18, 0x00, 0x08, 0x00, 0x07, 0x00, 0x0c, 0x00,
  0x10, 0x00, 0x14, 0x00, 0x0e, 0x00, 0x00, 0x00, 0x00, 0x00, 0x00, 0x02,
  0x10, 0x00, 0x00, 0x00, 0x06, 0x00, 0x00, 0x00, 0x10, 0x00, 0x00, 0x00,
  0x2c, 0x00, 0x00, 0x00, 0x01, 0x00, 0x00, 0x00, 0x02, 0x00, 0x00, 0x00,
  0x18, 0x00, 0x00, 0x00, 0x73, 0x65, 0x71, 0x75, 0x65, 0x6e, 0x74, 0x69,
  0x61, 0x6c, 0x2f, 0x66, 0x6c, 0x61, 0x74, 0x74, 0x65, 0x6e, 0x2f, 0x43,
  0x6f, 0x6e, 0x73, 0x74, 0x00, 0x00, 0x00, 0x00, 0x38, 0xfd, 0xff, 0xff,
  0x42, 0xfe, 0xff, 0xff, 0x04, 0x00, 0x00, 0x00, 0x0c, 0x00, 0x00, 0x00,
  0xe5, 0x5c, 0xe4, 0xbf, 0xfa, 0x8a, 0xd6, 0x3c, 0xdf, 0x71, 0x77, 0x3f,
  0x26, 0xfe, 0xff, 0xff, 0x10, 0x00, 0x00, 0x00, 0x05, 0x00, 0x00, 0x00,
  0x10, 0x00, 0x00, 0x00, 0x44, 0x00, 0x00, 0x00, 0x01, 0x00, 0x00, 0x00,
  0x03, 0x00, 0x00, 0x00, 0x32, 0x00, 0x00, 0x00, 0x73, 0x65, 0x71, 0x75,
  0x65, 0x6e, 0x74, 0x69, 0x61, 0x6c, 0x2f, 0x64, 0x65, 0x6e, 0x73, 0x65,
  0x5f, 0x31, 0x2f, 0x42, 0x69, 0x61, 0x73, 0x41, 0x64, 0x64, 0x2f, 0x52,
  0x65, 0x61, 0x64, 0x56, 0x61, 0x72, 0x69, 0x61, 0x62, 0x6c, 0x65, 0x4f,
  0x70, 0x2f, 0x72, 0x65, 0x73, 0x6f, 0x75, 0x72, 0x63, 0x65, 0x00, 0x00,
  0xa8, 0xfd, 0xff, 0xff, 0xb2, 0xfe, 0xff, 0xff, 0x04, 0x00, 0x00, 0x00,
  0x40, 0x00, 0x00, 0x00, 0xce, 0x24, 0x95, 0xbf, 0x96, 0x66, 0xdc, 0xbd,
  0x52, 0x15, 0x52, 0x3f, 0x86, 0xbd, 0x83, 0x40, 0x12, 0xfc, 0x3a, 0xbe,
  0x19, 0xa9, 0x2e, 0x40, 0x98, 0x7b, 0x0c, 0xc0, 0x98, 0x80, 0x90, 0x3f,
  0x13, 0xaf, 0x2f, 0xbe, 0xf8, 0x2c, 0x06, 0x40, 0xb2, 0x49, 0xb8, 0xbd,
  0xb5, 0xce, 0x76, 0x40, 0x0d, 0xbd, 0xdc, 0xbf, 0xab, 0x0d, 0x1f, 0xbe,
  0x83, 0xcb, 0x53, 0xbe, 0xf6, 0xe5, 0xc7, 0xbd, 0xca, 0xfe, 0xff, 0xff,
  0x10, 0x00, 0x00, 0x00, 0x04, 0x00, 0x00, 0x00, 0x10, 0x00, 0x00, 0x00,
  0x44, 0x00, 0x00, 0x00, 0x01, 0x00, 0x00, 0x00, 0x10, 0x00, 0x00, 0x00,
  0x30, 0x00, 0x00, 0x00, 0x73, 0x65, 0x71, 0x75, 0x65, 0x6e, 0x74, 0x69,
  0x61, 0x6c, 0x2f, 0x64, 0x65, 0x6e, 0x73, 0x65, 0x2f, 0x42, 0x69, 0x61,
  0x73, 0x41, 0x64, 0x64, 0x2f, 0x52, 0x65, 0x61, 0x64, 0x56, 0x61, 0x72,
  0x69, 0x61, 0x62, 0x6c, 0x65, 0x4f, 0x70, 0x2f, 0x72, 0x65, 0x73, 0x6f,
  0x75, 0x72, 0x63, 0x65, 0x00, 0x00, 0x00, 0x00, 0x4c, 0xfe, 0xff, 0xff,
  0x56, 0xff, 0xff, 0xff, 0x04, 0x00, 0x00, 0x00, 0x40, 0x00, 0x00, 0x00,
  0x44, 0xe6, 0x71, 0xbf, 0x10, 0x53, 0xc0, 0xbf, 0xe8, 0x02, 0x09, 0xbf,
  0x97, 0xc3, 0x2d, 0xbd, 0x17, 0xdc, 0x5e, 0xbd, 0x08, 0x79, 0x49, 0xbf,
  0x59, 0xdd, 0xad, 0x40, 0x71, 0xed, 0xb9, 0xbf, 0x3e, 0xd1, 0x02, 0xc0,
  0x3a, 0x29, 0xef, 0xbf, 0xf1, 0x59, 0x1f, 0xc0, 0xeb, 0x0d, 0x8e, 0xbf,
  0xfd, 0x38, 0x46, 0x3d, 0x4d, 0xca, 0xe8, 0x3d, 0xa7, 0x61, 0x5b, 0x3f,
  0xf1, 0x60, 0x10, 0x3f, 0x6e, 0xff, 0xff, 0xff, 0x10, 0x00, 0x00, 0x00,
  0x03, 0x00, 0x00, 0x00, 0x10, 0x00, 0x00, 0x00, 0x48, 0x00, 0x00, 0x00,
  0x01, 0x00, 0x00, 0x00, 0x10, 0x00, 0x00, 0x00, 0x33, 0x00, 0x00, 0x00,
  0x73, 0x65, 0x71, 0x75, 0x65, 0x6e, 0x74, 0x69, 0x61, 0x6c, 0x2f, 0x63,
  0x6f, 0x6e, 0x76, 0x32, 0x64, 0x5f, 0x31, 0x2f, 0x42, 0x69, 0x61, 0x73,
  0x41, 0x64, 0x64, 0x2f, 0x52, 0x65, 0x61, 0x64, 0x56, 0x61, 0x72, 0x69,
  0x61, 0x62, 0x6c, 0x65, 0x4f, 0x70, 0x2f, 0x72, 0x65, 0x73, 0x6f, 0x75,
  0x72, 0x63, 0x65, 0x00, 0x04, 0x00, 0x06, 0x00, 0x04, 0x00, 0x00, 0x00,
  0x00, 0x00, 0x06, 0x00, 0x08, 0x00, 0x04, 0x00, 0x06, 0x00, 0x00, 0x00,
  0x04, 0x00, 0x00, 0x00, 0x20, 0x00, 0x00, 0x00, 0xe7, 0x4d, 0x12, 0x40,
  0xca, 0xd3, 0x9b, 0xbf, 0xd6, 0xb0, 0x05, 0xbc, 0x02, 0x23, 0x8b, 0xbf,
  0x5d, 0xc9, 0x0f, 0xbc, 0x1d, 0xef, 0xcd, 0xbf, 0x59, 0x79, 0x0c, 0xc0,
  0x15, 0x0c, 0x1b, 0xc0, 0x00, 0x00, 0x0e, 0x00, 0x14, 0x00, 0x04, 0x00,
  0x00, 0x00, 0x08, 0x00, 0x0c, 0x00, 0x10, 0x00, 0x0e, 0x00, 0x00, 0x00,
  0x10, 0x00, 0x00, 0x00, 0x02, 0x00, 0x00, 0x00, 0x10, 0x00, 0x00, 0x00,
  0x44, 0x00, 0x00, 0x00, 0x01, 0x00, 0x00, 0x00, 0x08, 0x00, 0x00, 0x00,
  0x31, 0x00, 0x00, 0x00, 0x73, 0x65, 0x71, 0x75, 0x65, 0x6e, 0x74, 0x69,
  0x61, 0x6c, 0x2f, 0x63, 0x6f, 0x6e, 0x76, 0x32, 0x64, 0x2f, 0x42, 0x69,
  0x61, 0x73, 0x41, 0x64, 0x64, 0x2f, 0x52, 0x65, 0x61, 0x64, 0x56, 0x61,
  0x72, 0x69, 0x61, 0x62, 0x6c, 0x65, 0x4f, 0x70, 0x2f, 0x72, 0x65, 0x73,
  0x6f, 0x75, 0x72, 0x63, 0x65, 0x00, 0x00, 0x00, 0x90, 0xff, 0xff, 0xff,
  0x14, 0x00, 0x18, 0x00, 0x04, 0x00, 0x00, 0x00, 0x08, 0x00, 0x0c, 0x00,
  0x10, 0x00, 0x00, 0x00, 0x00, 0x00, 0x14, 0x00, 0x14, 0x00, 0x00, 0x00,
  0x14, 0x00, 0x00, 0x00, 0x01, 0x00, 0x00, 0x00, 0x20, 0x00, 0x00, 0x00,
  0x44, 0x00, 0x00, 0x00, 0x2c, 0x00, 0x00, 0x00, 0x04, 0x00, 0x00, 0x00,
  0x01, 0x00, 0x00, 0x00, 0x40, 0x00, 0x00, 0x00, 0x03, 0x00, 0x00, 0x00,
  0x01, 0x00, 0x00, 0x00, 0x0c, 0x00, 0x00, 0x00, 0x63, 0x6f, 0x6e, 0x76,
  0x32, 0x64, 0x5f, 0x69, 0x6e, 0x70, 0x75, 0x74, 0x00, 0x00, 0x00, 0x00,
  0x04, 0x00, 0x00, 0x00, 0xff, 0xff, 0xff, 0xff, 0x40, 0x00, 0x00, 0x00,
  0x03, 0x00, 0x00, 0x00, 0x01, 0x00, 0x00, 0x00, 0xfc, 0xff, 0xff, 0xff,
  0x04, 0x00, 0x04, 0x00, 0x04, 0x00, 0x00, 0x00
};

unsigned int model_tflite_len = 13052;// Fill the int in `src/model.cc` here